{
  "version": "1.0",
  "truncation": null,
  "padding": null,
  "added_tokens": [
    {
      "id": 0,
      "content": "<unk>",
      "single_word": false,
      "lstrip": false,
      "rstrip": false,
      "normalized": false,
      "special": true
    },
    {
      "id": 1,
      "content": "<s>",
      "single_word": false,
      "lstrip": false,
      "rstrip": false,
      "normalized": false,
      "special": true
    },
    {
      "id": 2,
      "content": "</s>",
      "single_word": false,
      "lstrip": false,
      "rstrip": false,
      "normalized": false,
      "special": true
    },
    {
      "id": 3,
      "content": "<|im_start|>",
      "single_word": false,
      "lstrip": false,
      "rstrip": false,
      "normalized": false,
      "special": true
    },
    {
      "id": 4,
      "content": "<|im_end|>",
      "single_word": false,
      "lstrip": false,
      "rstrip": false,
      "normalized": false,
      "special": true
    }
  ],
  "normalizer": {
    "type": "NFKC"
  },
  "pre_tokenizer": {
    "type": "ByteLevel",
    "add_prefix_space": false,
    "trim_offsets": true,
    "use_regex": true
  },
  "post_processor": null,
  "decoder": {
    "type": "ByteLevel",
    "add_prefix_space": true,
    "trim_offsets": true,
    "use_regex": true
  },
  "model": {
    "type": "BPE",
    "dropout": null,
    "unk_token": "<unk>",
    "continuing_subword_prefix": null,
    "end_of_word_suffix": null,
    "fuse_unk": false,
    "byte_fallback": false,
    "ignore_merges": false,
    "vocab": {
      "<unk>": 0,
      "<s>": 1,
      "</s>": 2,
      "<|im_start|>": 3,
      "<|im_end|>": 4,
      "!": 5,
      "\"": 6,
      "#": 7,
      "$": 8,
      "%": 9,
      "&": 10,
      "'": 11,
      "(": 12,
      ")": 13,
      "*": 14,
      "+": 15,
      ",": 16,
      "-": 17,
      ".": 18,
      "/": 19,
      "0": 20,
      "1": 21,
      "2": 22,
      "3": 23,
      "4": 24,
      "5": 25,
      "6": 26,
      "7": 27,
      "8": 28,
      "9": 29,
      ":": 30,
      ";": 31,
      "<": 32,
      "=": 33,
      ">": 34,
      "?": 35,
      "@": 36,
      "A": 37,
      "B": 38,
      "C": 39,
      "D": 40,
      "E": 41,
      "F": 42,
      "G": 43,
      "H": 44,
      "I": 45,
      "J": 46,
      "K": 47,
      "L": 48,
      "M": 49,
      "N": 50,
      "O": 51,
      "P": 52,
      "Q": 53,
      "R": 54,
      "S": 55,
      "T": 56,
      "U": 57,
      "V": 58,
      "W": 59,
      "X": 60,
      "Y": 61,
      "Z": 62,
      "[": 63,
      "\\": 64,
      "]": 65,
      "^": 66,
      "_": 67,
      "`": 68,
      "a": 69,
      "b": 70,
      "c": 71,
      "d": 72,
      "e": 73,
      "f": 74,
      "g": 75,
      "h": 76,
      "i": 77,
      "j": 78,
      "k": 79,
      "l": 80,
      "m": 81,
      "n": 82,
      "o": 83,
      "p": 84,
      "q": 85,
      "r": 86,
      "s": 87,
      "t": 88,
      "u": 89,
      "v": 90,
      "w": 91,
      "x": 92,
      "y": 93,
      "z": 94,
      "{": 95,
      "|": 96,
      "}": 97,
      "~": 98,
      "¡": 99,
      "¢": 100,
      "£": 101,
      "¤": 102,
      "¥": 103,
      "¦": 104,
      "§": 105,
      "¨": 106,
      "©": 107,
      "ª": 108,
      "«": 109,
      "¬": 110,
      "®": 111,
      "¯": 112,
      "°": 113,
      "±": 114,
      "²": 115,
      "³": 116,
      "´": 117,
      "µ": 118,
      "¶": 119,
      "·": 120,
      "¸": 121,
      "¹": 122,
      "º": 123,
      "»": 124,
      "¼": 125,
      "½": 126,
      "¾": 127,
      "¿": 128,
      "À": 129,
      "Á": 130,
      "Â": 131,
      "Ã": 132,
      "Ä": 133,
      "Å": 134,
      "Æ": 135,
      "Ç": 136,
      "È": 137,
      "É": 138,
      "Ê": 139,
      "Ë": 140,
      "Ì": 141,
      "Í": 142,
      "Î": 143,
      "Ï": 144,
      "Ð": 145,
      "Ñ": 146,
      "Ò": 147,
      "Ó": 148,
      "Ô": 149,
      "Õ": 150,
      "Ö": 151,
      "×": 152,
      "Ø": 153,
      "Ù": 154,
      "Ú": 155,
      "Û": 156,
      "Ü": 157,
      "Ý": 158,
      "Þ": 159,
      "ß": 160,
      "à": 161,
      "á": 162,
      "â": 163,
      "ã": 164,
      "ä": 165,
      "å": 166,
      "æ": 167,
      "ç": 168,
      "è": 169,
      "é": 170,
      "ê": 171,
      "ë": 172,
      "ì": 173,
      "í": 174,
      "î": 175,
      "ï": 176,
      "ð": 177,
      "ñ": 178,
      "ò": 179,
      "ó": 180,
      "ô": 181,
      "õ": 182,
      "ö": 183,
      "÷": 184,
      "ø": 185,
      "ù": 186,
      "ú": 187,
      "û": 188,
      "ü": 189,
      "ý": 190,
      "þ": 191,
      "ÿ": 192,
      "Ā": 193,
      "ā": 194,
      "Ă": 195,
      "ă": 196,
      "Ą": 197,
      "ą": 198,
      "Ć": 199,
      "ć": 200,
      "Ĉ": 201,
      "ĉ": 202,
      "Ċ": 203,
      "ċ": 204,
      "Č": 205,
      "č": 206,
      "Ď": 207,
      "ď": 208,
      "Đ": 209,
      "đ": 210,
      "Ē": 211,
      "ē": 212,
      "Ĕ": 213,
      "ĕ": 214,
      "Ė": 215,
      "ė": 216,
      "Ę": 217,
      "ę": 218,
      "Ě": 219,
      "ě": 220,
      "Ĝ": 221,
      "ĝ": 222,
      "Ğ": 223,
      "ğ": 224,
      "Ġ": 225,
      "ġ": 226,
      "Ģ": 227,
      "ģ": 228,
      "Ĥ": 229,
      "ĥ": 230,
      "Ħ": 231,
      "ħ": 232,
      "Ĩ": 233,
      "ĩ": 234,
      "Ī": 235,
      "ī": 236,
      "Ĭ": 237,
      "ĭ": 238,
      "Į": 239,
      "į": 240,
      "İ": 241,
      "ı": 242,
      "Ĳ": 243,
      "ĳ": 244,
      "Ĵ": 245,
      "ĵ": 246,
      "Ķ": 247,
      "ķ": 248,
      "ĸ": 249,
      "Ĺ": 250,
      "ĺ": 251,
      "Ļ": 252,
      "ļ": 253,
      "Ľ": 254,
      "ľ": 255,
      "Ŀ": 256,
      "ŀ": 257,
      "Ł": 258,
      "ł": 259,
      "Ń": 260,
      "ĢĤ": 261,
      "ãĢĤ": 262,
      "ä¸": 263,
      "äº": 264,
      "å¤": 265,
      "æľ": 266,
      "æĹ": 267,
      "åĲ": 268,
      "åı": 269,
      "åħ": 270,
      "å®": 271,
      "åį": 272,
      "æĺ": 273,
      "å°": 274,
      "ä¹": 275,
      "ä»": 276,
      "æĿ": 277,
      "ä½": 278,
      "è¿": 279,
      "é£": 280,
      "å±": 281,
      "ä¸į": 282,
      "å¹": 283,
      "å¿": 284,
      "å¾": 285,
      "æĸ": 286,
      "éĩ": 287,
      "å¯": 288,
      "éĹ": 289,
      "æµ": 290,
      "äºº": 291,
      "çĶ": 292,
      "éĽ": 293,
      "è¯": 294,
      "åĩ": 295,
      "ç»": 296,
      "ä¸Ģ": 297,
      "æĪ": 298,
      "æŃ": 299,
      "èĬ": 300,
      "æ¸": 301,
      "åĪ": 302,
      "å½": 303,
      "é£İ": 304,
      "åŃ": 305,
      "åĽ": 306,
      "å±±": 307,
      "æ°": 308,
      "çĽ": 309,
      "è¡": 310,
      "æ±": 311,
      "æĢ": 312,
      "ç§": 313,
      "çŁ": 314,
      "ä¼": 315,
      "æĹł": 316,
      "åľ": 317,
      "åº": 318,
      "è§": 319,
      "å·": 320,
      "æľī": 321,
      "èĩ": 322,
      "æī": 323,
      "éģ": 324,
      "éĺ": 325,
      "çĻ": 326,
      "è°": 327,
      "å¦": 328,
      "çľ": 329,
      "å¤©": 330,
      "æĥ": 331,
      "éĿ": 332,
      "å¼": 333,
      "åĨ": 334,
      "æĹ¥": 335,
      "äºĳ": 336,
      "æĿ¥": 337,
      "èĢ": 338,
      "ä½ķ": 339,
      "æ³": 340,
      "æĦ": 341,
      "æŀ": 342,
      "éĢ": 343,
      "å¸": 344,
      "æķ": 345,
      "å²": 346,
      "èį": 347,
      "éļ": 348,
      "å£": 349,
      "èĬ±": 350,
      "åİ": 351,
      "çİ": 352,
      "èĭ": 353,
      "æ²": 354,
      "æĽ": 355,
      "æĻ": 356,
      "èĲ": 357,
      "æĺ¥": 358,
      "è½": 359,
      "å¥": 360,
      "ä¸Ń": 361,
      "èµ": 362,
      "ç«": 363,
      "é¦": 364,
      "é¸": 365,
      "å¹´": 366,
      "çĶŁ": 367,
      "ç©": 368,
      "çº": 369,
      "æľĪ": 370,
      "èĩª": 371,
      "éľ": 372,
      "è¾": 373,
      "æĹ¶": 374,
      "æ°´": 375,
      "éķ": 376,
      "èĥ": 377,
      "æ¢": 378,
      "å¦Ĥ": 379,
      "åĬ": 380,
      "æł": 381,
      "éĻ": 382,
      "æ·": 383,
      "ä¸Ĭ": 384,
      "æ¬": 385,
      "ä¸º": 386,
      "è´": 387,
      "èĪ": 388,
      "åī": 389,
      "å¿ĥ": 390,
      "çĥ": 391,
      "è®": 392,
      "ç¿": 393,
      "ç¬": 394,
      "æĬ": 395,
      "çĽ¸": 396,
      "æģ": 397,
      "é©": 398,
      "çŁ¥": 399,
      "éħ": 400,
      "ä¾": 401,
      "éķ¿": 402,
      "ç§ĭ": 403,
      "æ¸ħ": 404,
      "æŃ¤": 405,
      "æ±Ł": 406,
      "æĪĳ": 407,
      "é«": 408,
      "çĻ½": 409,
      "æľª": 410,
      "éĽ¨": 411,
      "å½Ĵ": 412,
      "çī": 413,
      "åĲĽ": 414,
      "åĮ": 415,
      "èī": 416,
      "ç¾": 417,
      "ä¿": 418,
      "å¾Ĺ": 419,
      "æĭ": 420,
      "åŃĲ": 421,
      "é¢": 422,
      "çģ": 423,
      "åĢ": 424,
      "æ¶": 425,
      "åįĥ": 426,
      "é«ĺ": 427,
      "èİ": 428,
      "è¡Į": 429,
      "ä¸ī": 430,
      "åĿ": 431,
      "ç¥": 432,
      "èĻ": 433,
      "é»": 434,
      "éĿĴ": 435,
      "éĩĮ": 436,
      "ç©º": 437,
      "æĺİ": 438,
      "èĢģ": 439,
      "æļ": 440,
      "å¤ľ": 441,
      "æ¡": 442,
      "ä»Ĭ": 443,
      "æ»": 444,
      "ä¸ĩ": 445,
      "çĭ": 446,
      "å¯Ĵ": 447,
      "äºĭ": 448,
      "åł": 449,
      "ä¸ĭ": 450,
      "è§ģ": 451,
      "åľ¨": 452,
      "æĤ": 453,
      "åİ»": 454,
      "æ´": 455,
      "æĺ¯": 456,
      "éĥ": 457,
      "è¥": 458,
      "å®¶": 459,
      "çķ": 460,
      "è°ģ": 461,
      "ç¦": 462,
      "åŁ": 463,
      "åįĹ": 464,
      "åı¯": 465,
      "å·²": 466,
      "å®¢": 467,
      "èĲ½": 468,
      "çİī": 469,
      "é¹": 470,
      "æŁ": 471,
      "éĹ¨": 472,
      "è·": 473,
      "å¤ļ": 474,
      "é¡": 475,
      "æµģ": 476,
      "å£°": 477,
      "ä¸İ": 478,
      "å¤Ħ": 479,
      "ä¸ľ": 480,
      "æĮ": 481,
      "éħĴ": 482,
      "é£ŀ": 483,
      "æ¹": 484,
      "æĸ°": 485,
      "ç¼": 486,
      "åīį": 487,
      "éģĵ": 488,
      "è¯Ĺ": 489,
      "æ¬²": 490,
      "çĬ": 491,
      "æ¥": 492,
      "ä¹¦": 493,
      "éĩĳ": 494,
      "æµ·": 495,
      "çĦ": 496,
      "æ·±": 497,
      "æĪĲ": 498,
      "è¥¿": 499,
      "éª": 500,
      "æ¯": 501,
      "åı¤": 502,
      "åĳ": 503,
      "çľĭ": 504,
      "åĩº": 505,
      "èĤ": 506,
      "æĶ": 507,
      "æ®": 508,
      "æº": 509,
      "å¼Ģ": 510,
      "åľ°": 511,
      "æİ": 512,
      "çĥŁ": 513,
      "èĮ": 514,
      "ä½ľ": 515,
      "æĽ´": 516,
      "è¶": 517,
      "çĸ": 518,
      "çŁ³": 519,
      "éĴ": 520,
      "é¾": 521,
      "èĥ½": 522,
      "æŀĹ": 523,
      "å¤´": 524,
      "èº": 525,
      "åħī": 526,
      "ä¸ĸ": 527,
      "èįī": 528,
      "éĩį": 529,
      "åħ¥": 530,
      "éĤ": 531,
      "æľĿ": 532,
      "é»Ħ": 533,
      "åĲĮ": 534,
      "é¦Ļ": 535,
      "è¿ľ": 536,
      "ç´": 537,
      "å°½": 538,
      "èī²": 539,
      "æ¸¸": 540,
      "åŁİ": 541,
      "ä»İ": 542,
      "æ¢¦": 543,
      "æłĳ": 544,
      "äº¦": 545,
      "éĨ": 546,
      "åģ": 547,
      "çª": 548,
      "è¿ĺ": 549,
      "åĩł": 550,
      "æĥħ": 551,
      "åĽŀ": 552,
      "æ°Ķ": 553,
      "æĢĿ": 554,
      "çĲ": 555,
      "å½ĵ": 556,
      "åįģ": 557,
      "æĦı": 558,
      "çļ": 559,
      "ç½": 560,
      "åĲį": 561,
      "çĻ¾": 562,
      "å¹³": 563,
      "é¥": 564,
      "éĹ´": 565,
      "çĬ¹": 566,
      "é©¬": 567,
      "å³": 568,
      "å¤§": 569,
      "¨Ģ": 570,
      "è·¯": 571,
      "çĭ¬": 572,
      "éĽª": 573,
      "éļ¾": 574,
      "åĵ": 575,
      "å°Ĩ": 576,
      "å°ĺ": 577,
      "çĦ¶": 578,
      "èº«": 579,
      "è¿ĩ": 580,
      "é¾Ļ": 581,
      "éĶ": 582,
      "ç¢": 583,
      "å¤į": 584,
      "åĪ°": 585,
      "æ»¡": 586,
      "æĹ§": 587,
      "éĺ³": 588,
      "è¡£": 589,
      "åĴ": 590,
      "çŃ": 591,
      "åºĶ": 592,
      "éĹ»": 593,
      "ä¼¼": 594,
      "åĸ": 595,
      "æľĽ": 596,
      "åħ¬": 597,
      "åįİ": 598,
      "èİ«": 599,
      "å§": 600,
      "æ¨": 601,
      "çĪ": 602,
      "æķħ": 603,
      "æ¼": 604,
      "æĦģ": 605,
      "æŃĮ": 606,
      "æĸ¹": 607,
      "çº¢": 608,
      "å¥½": 609,
      "åĲĳ": 610,
      "éĵ": 611,
      "åĪĨ": 612,
      "å°ı": 613,
      "ä»Ļ": 614,
      "æĸĩ": 615,
      "åĲİ": 616,
      "å¢": 617,
      "å²ģ": 618,
      "éĿŀ": 619,
      "çĹ": 620,
      "çĤ": 621,
      "å®ī": 622,
      "èĹ": 623,
      "åĪ«": 624,
      "äºĶ": 625,
      "èµ·": 626,
      "å¤ĸ": 627,
      "è¨Ģ": 628,
      "çľŁ": 629,
      "ç²": 630,
      "çħ": 631,
      "ç«¹": 632,
      "åıĳ": 633,
      "æ¥¼": 634,
      "åŃ¤": 635,
      "ç¥ŀ": 636,
      "ä¹ĭ": 637,
      "æ½": 638,
      "åĿĲ": 639,
      "éĹ®": 640,
      "çı": 641,
      "ç¬ĳ": 642,
      "é¡»": 643,
      "åĮĹ": 644,
      "åı°": 645,
      "æĿ¾": 646,
      "å¹½": 647,
      "éĺ´": 648,
      "åĪĿ": 649,
      "è¾¹": 650,
      "çķĻ": 651,
      "éľľ": 652,
      "æºª": 653,
      "è£": 654,
      "å²Ĥ": 655,
      "åŀ": 656,
      "è¢": 657,
      "ç®": 658,
      "éĩİ": 659,
      "èĳ": 660,
      "åķ": 661,
      "åı¶": 662,
      "åĲ¾": 663,
      "åĦ": 664,
      "ä¸¤": 665,
      "æīĢ": 666,
      "é¦Ģ": 667,
      "åįĬ": 668,
      "æ¹ĸ": 669,
      "åĤ": 670,
      "éļı": 671,
      "éĨī": 672,
      "ä¼ł": 673,
      "èģ": 674,
      "åħĪ": 675,
      "æĢĢ": 676,
      "çİĭ": 677,
      "åĽĽ": 678,
      "å½±": 679,
      "æĻļ": 680,
      "ä»¥": 681,
      "åĽ½": 682,
      "èĵ": 683,
      "æ£": 684,
      "èĸ": 685,
      "éŁ": 686,
      "çī©": 687,
      "æħ": 688,
      "é¼": 689,
      "ç¨": 690,
      "åħ±": 691,
      "å°ĳ": 692,
      "é¸Ł": 693,
      "ç»¿": 694,
      "åĭ": 695,
      "æ²³": 696,
      "æµ®": 697,
      "è±": 698,
      "åĶ": 699,
      "ä¹Ŀ": 700,
      "æŃ£": 701,
      "ç¢§": 702,
      "æŁ³": 703,
      "ä¹Ĳ": 704,
      "æĽ¾": 705,
      "å±ħ": 706,
      "è¯Ń": 707,
      "æ³¢": 708,
      "èĪŁ": 709,
      "æŀĿ": 710,
      "ç»ı": 711,
      "èħ": 712,
      "åıĮ": 713,
      "çł": 714,
      "å¾®": 715,
      "åłĤ": 716,
      "æĥĬ": 717,
      "åĲŁ": 718,
      "éľ²": 719,
      "åħ³": 720,
      "èĭį": 721,
      "çľ¼": 722,
      "æĳ": 723,
      "éĢ¢": 724,
      "å¨": 725,
      "å¯¹": 726,
      "æĢľ": 727,
      "ç¿ł": 728,
      "çĮ": 729,
      "ä¹ħ": 730,
      "åĲ¹": 731,
      "å°ļ": 732,
      "ç¦»": 733,
      "æļ®": 734,
      "å¯»": 735,
      "ç»Ī": 736,
      "ç¯": 737,
      "æľ¨": 738,
      "åħ´": 739,
      "ä¸´": 740,
      "èĭ¥": 741,
      "åıª": 742,
      "çħ§": 743,
      "èĬ³": 744,
      "æīį": 745,
      "åıĪ": 746,
      "ä¹¡": 747,
      "æ±ī": 748,
      "æ³ī": 749,
      "åį´": 750,
      "è¿ĳ": 751,
      "æ®ĭ": 752,
      "æĸŃ": 753,
      "æīĭ": 754,
      "é¬": 755,
      "å¿½": 756,
      "è½»": 757,
      "æ¢ħ": 758,
      "åħ¶": 759,
      "é±": 760,
      "å®ĺ": 761,
      "é±¼": 762,
      "æķ°": 763,
      "å³°": 764,
      "çĩ": 765,
      "èĲ§": 766,
      "èĦ": 767,
      "åłª": 768,
      "é¸£": 769,
      "èĭ¦": 770,
      "çĳ": 771,
      "è½¦": 772,
      "éŃ": 773,
      "ç»Ŀ": 774,
      "æĺŁ": 775,
      "çĸı": 776,
      "åĲ¬": 777,
      "éĸ": 778,
      "çĶ»": 779,
      "è¶³": 780,
      "å¤ª": 781,
      "èı": 782,
      "äºĮ": 783,
      "å¡": 784,
      "å£«": 785,
      "æĽ²": 786,
      "çªĹ": 787,
      "å¤ķ": 788,
      "åĸľ": 789,
      "åºŃ": 790,
      "å»": 791,
      "åĦ¿": 792,
      "éģ¥": 793,
      "çĻ»": 794,
      "å®«": 795,
      "åĩī": 796,
      "æľŁ": 797,
      "è¿ŀ": 798,
      "åĬ¨": 799,
      "å¿Ĩ": 800,
      "åĥ": 801,
      "ä¾Ŀ": 802,
      "ç´«": 803,
      "é¹¤": 804,
      "ä¸Ķ": 805,
      "åĽŃ": 806,
      "èĽ": 807,
      "æį": 808,
      "çģµ": 809,
      "å¸¸": 810,
      "è½¬": 811,
      "äºŃ": 812,
      "èĢħ": 813,
      "é¦ĸ": 814,
      "é²": 815,
      "å®¹": 816,
      "è½½": 817,
      "çĪ±": 818,
      "éĸĴ": 819,
      "èĻļ": 820,
      "æĻ´": 821,
      "èĬĤ": 822,
      "èĥľ": 823,
      "äºİ": 824,
      "ä½¿": 825,
      "éº": 826,
      "ç©·": 827,
      "èĩ³": 828,
      "ä¸¹": 829,
      "å´": 830,
      "å¾Ģ": 831,
      "æĺĶ": 832,
      "åŃ¦": 833,
      "è¯Ĩ": 834,
      "èĴ": 835,
      "å·ŀ": 836,
      "ç¾¤": 837,
      "å¿ĺ": 838,
      "çĶ°": 839,
      "æ²Ļ": 840,
      "åŀĤ": 841,
      "éĢģ": 842,
      "æĤ²": 843,
      "éĹ²": 844,
      "èįĴ": 845,
      "çĵ": 846,
      "å¯Ħ": 847,
      "æı": 848,
      "çĹħ": 849,
      "æ±ł": 850,
      "éļĲ": 851,
      "éģĹ": 852,
      "åĹ": 853,
      "äº²": 854,
      "çĩķ": 855,
      "æ³ª": 856,
      "æ¨ª": 857,
      "æĻĵ": 858,
      "åĲĪ": 859,
      "åĴĮ": 860,
      "åº¦": 861,
      "éĽģ": 862,
      "æķ£": 863,
      "æĲ": 864,
      "è¸": 865,
      "ç¤": 866,
      "èľ": 867,
      "è¹": 868,
      "åĢļ": 869,
      "è§ī": 870,
      "éĢļ": 871,
      "åĩ¤": 872,
      "æĥŁ": 873,
      "æ¡ĥ": 874,
      "åħĥ": 875,
      "çģ«": 876,
      "éĿĻ": 877,
      "éļĶ": 878,
      "ä¼ĳ": 879,
      "åĽł": 880,
      "å®ļ": 881,
      "æĹ©": 882,
      "è§£": 883,
      "ä¿¡": 884,
      "å°Ķ": 885,
      "åĬŁ": 886,
      "è¦": 887,
      "çģ¯": 888,
      "æĺĵ": 889,
      "è¯´": 890,
      "å¯Ĥ": 891,
      "å¥³": 892,
      "è®º": 893,
      "åħŃ": 894,
      "è´¤": 895,
      "æŃ»": 896,
      "ä¼ļ": 897,
      "ä¹±": 898,
      "æĸľ": 899,
      "ä»¤": 900,
      "æ¦": 901,
      "é½": 902,
      "çĿ": 903,
      "å¾ħ": 904,
      "æĿ¯": 905,
      "çº·": 906,
      "æĻ¯": 907,
      "å¤«": 908,
      "å¾Ħ": 909,
      "å¿§": 910,
      "ç«ĭ": 911,
      "è®¸": 912,
      "çĶ¨": 913,
      "åĮĸ": 914,
      "æ¿": 915,
      "éĻµ": 916,
      "æģ¨": 917,
      "å±ĭ": 918,
      "éĥİ": 919,
      "åħ°": 920,
      "è¿Ł": 921,
      "ä½Ĩ": 922,
      "éľŀ": 923,
      "æĸĹ": 924,
      "å¥ĩ": 925,
      "äº¤": 926,
      "æĤł": 927,
      "æ§": 928,
      "è¿¹": 929,
      "èĳĹ": 930,
      "ä¾¿": 931,
      "å¸¦": 932,
      "ç¬Ķ": 933,
      "éĿ¢": 934,
      "å·Ŀ": 935,
      "çĸĳ": 936,
      "æµª": 937,
      "åĬĽ": 938,
      "é¢ľ": 939,
      "è§Ĥ": 940,
      "éĥ½": 941,
      "ç»ĵ": 942,
      "ç«ł": 943,
      "åĨ·": 944,
      "ç¿ģ": 945,
      "æĿĳ": 946,
      "ä¸»": 947,
      "çıł": 948,
      "ä¸Ŀ": 949,
      "å²©": 950,
      "äºī": 951,
      "èĪ¹": 952,
      "ç»Ĩ": 953,
      "å®ģ": 954,
      "ä¸ĩéĩĮ": 955,
      "å¾·": 956,
      "æ¾": 957,
      "åİŁ": 958,
      "å¿µ": 959,
      "æ¥ļ": 960,
      "éĺģ": 961,
      "åį§": 962,
      "æ¡¥": 963,
      "åľ£": 964,
      "åĬ³": 965,
      "ä½³": 966,
      "å¸Ŀ": 967,
      "éĶ¦": 968,
      "æľ¬": 969,
      "æ¬¢": 970,
      "æĦ¿": 971,
      "èĿ": 972,
      "åĲ´": 973,
      "æĦŁ": 974,
      "çļĩ": 975,
      "èµĭ": 976,
      "çĽ´": 977,
      "èĸĦ": 978,
      "ç±": 979,
      "æģ©": 980,
      "éŁ³": 981,
      "çĨ": 982,
      "éĴŁ": 983,
      "åĨ°": 984,
      "åĽ¾": 985,
      "èĻ½": 986,
      "å°º": 987,
      "è°·": 988,
      "ç§»": 989,
      "ç«¯": 990,
      "çĽ®": 991,
      "é£Ł": 992,
      "æķĻ": 993,
      "åĺ": 994,
      "è¯¸": 995,
      "ä½ķå¤Ħ": 996,
      "æ°ĳ": 997,
      "åĨł": 998,
      "ä¹ĺ": 999,
      "é£ĺ": 1000,
      "ç¿»": 1001,
      "ç½Ĺ": 1002,
      "æ¼«": 1003,
      "å¼Ĥ": 1004,
      "çł´": 1005,
      "å§ĭ": 1006,
      "èĪŀ": 1007,
      "èĮ«": 1008,
      "æŃ¥": 1009,
      "èĶ": 1010,
      "æģ¯": 1011,
      "èī¯": 1012,
      "èķ": 1013,
      "é¼ĵ": 1014,
      "éª¨": 1015,
      "åĥ§": 1016,
      "å¸Ī": 1017,
      "åŃĹ": 1018,
      "ç´ł": 1019,
      "ä¼¤": 1020,
      "é¢ĳ": 1021,
      "éŀ": 1022,
      "åºķ": 1023,
      "çļĨ": 1024,
      "è¾ŀ": 1025,
      "æ¶Ī": 1026,
      "å®¿": 1027,
      "åīĳ": 1028,
      "éŃĤ": 1029,
      "ä¹ĥ": 1030,
      "èģĬ": 1031,
      "ä¸įçŁ¥": 1032,
      "ä¿Ĺ": 1033,
      "ç§į": 1034,
      "æŀģ": 1035,
      "èĭ±": 1036,
      "æ±Ĥ": 1037,
      "æĺ¥é£İ": 1038,
      "èĹı": 1039,
      "åħ«": 1040,
      "æĥľ": 1041,
      "å°Ĭ": 1042,
      "æĬ¥": 1043,
      "èĵ¬": 1044,
      "å®ľ": 1045,
      "æĶ¶": 1046,
      "åķ¼": 1047,
      "åıĬ": 1048,
      "çĤ¹": 1049,
      "ç»ķ": 1050,
      "éĤ£": 1051,
      "é¸¿": 1052,
      "ç¼ĺ": 1053,
      "é¥®": 1054,
      "éĽĦ": 1055,
      "åı¥": 1056,
      "æķ¢": 1057,
      "èĻİ": 1058,
      "ç£": 1059,
      "åįĥéĩĮ": 1060,
      "æ´ŀ": 1061,
      "æĥ³": 1062,
      "é¸¡": 1063,
      "æľĢ": 1064,
      "æª": 1065,
      "é¬ĵ": 1066,
      "è°¢": 1067,
      "çŀ": 1068,
      "æłĸ": 1069,
      "åľŁ": 1070,
      "åı¹": 1071,
      "èĩ£": 1072,
      "å£ģ": 1073,
      "éĩĩ": 1074,
      "ä»ĸ": 1075,
      "åı£": 1076,
      "ç°": 1077,
      "çĽĺ": 1078,
      "çĲ´": 1079,
      "æľ±": 1080,
      "æĮģ": 1081,
      "ç¾İ": 1082,
      "éĢĲ": 1083,
      "æĿ¨": 1084,
      "çŁŃ": 1085,
      "çīĽ": 1086,
      "æĬ±": 1087,
      "å¿Ĺ": 1088,
      "åĳ½": 1089,
      "åį·": 1090,
      "è´Ł": 1091,
      "æĬĺ": 1092,
      "åĳ¼": 1093,
      "å¾Ĵ": 1094,
      "åģı": 1095,
      "æĦ§": 1096,
      "å¤±": 1097,
      "ç¾½": 1098,
      "çĺ": 1099,
      "çīĩ": 1100,
      "æ¶¯": 1101,
      "æł¹": 1102,
      "åĹŁ": 1103,
      "æ¡ĳ": 1104,
      "çİĦ": 1105,
      "æļĹ": 1106,
      "ç§¦": 1107,
      "å«": 1108,
      "é½Ĳ": 1109,
      "çľł": 1110,
      "æĤ¬": 1111,
      "åĩŃ": 1112,
      "æĮĩ": 1113,
      "åĨĽ": 1114,
      "é¢ĺ": 1115,
      "è¦ģ": 1116,
      "åıĸ": 1117,
      "å²¸": 1118,
      "åħµ": 1119,
      "åĢ¾": 1120,
      "åĳ¨": 1121,
      "ä¾¯": 1122,
      "è´µ": 1123,
      "åŃĺ": 1124,
      "ä¹¾": 1125,
      "åį³": 1126,
      "æĶ¾": 1127,
      "èĤ¯": 1128,
      "çĲĨ": 1129,
      "æ²§": 1130,
      "æĿİ": 1131,
      "å¸ĺ": 1132,
      "å¸Ĥ": 1133,
      "æİ¥": 1134,
      "å²Ń": 1135,
      "æ¢ģ": 1136,
      "ç«Ł": 1137,
      "åŃĻ": 1138,
      "æĪ·": 1139,
      "åĤį": 1140,
      "éĤ»": 1141,
      "æĬĬ": 1142,
      "è®¡": 1143,
      "äººéĹ´": 1144,
      "è¿·": 1145,
      "æĳĩ": 1146,
      "æĺł": 1147,
      "çĶĺ": 1148,
      "è¡°": 1149,
      "è°Ī": 1150,
      "å¹²": 1151,
      "çĻ½äºĳ": 1152,
      "é¡¾": 1153,
      "çĭĤ": 1154,
      "ç²¾": 1155,
      "éĵ¶": 1156,
      "æŀķ": 1157,
      "æĲº": 1158,
      "æľº": 1159,
      "ä¸įåı¯": 1160,
      "æĢ¥": 1161,
      "æ¸Ķ": 1162,
      "æĺı": 1163,
      "åĲ«": 1164,
      "åħ¨": 1165,
      "éªĳ": 1166,
      "å¿ħ": 1167,
      "å®Ŀ": 1168,
      "ä½İ": 1169,
      "åĵĢ": 1170,
      "æ¸Ĳ": 1171,
      "åĨµ": 1172,
      "ä¹Į": 1173,
      "ä»į": 1174,
      "çĶ±": 1175,
      "å°ģ": 1176,
      "èļ": 1177,
      "è¯ķ": 1178,
      "åĤ¬": 1179,
      "åĨ¥": 1180,
      "åıĤ": 1181,
      "æģĲ": 1182,
      "èĥ¡": 1183,
      "éĻĪ": 1184,
      "å¹¶": 1185,
      "å®¤": 1186,
      "ç³": 1187,
      "åįģå¹´": 1188,
      "åıĺ": 1189,
      "ä½ı": 1190,
      "è´«": 1191,
      "èĭĶ": 1192,
      "è½©": 1193,
      "æĭĤ": 1194,
      "ä¸ĥ": 1195,
      "åģ¶": 1196,
      "æ¯ı": 1197,
      "è¯»": 1198,
      "ä¸ļ": 1199,
      "è¿İ": 1200,
      "å¾ģ": 1201,
      "äº¬": 1202,
      "éķľ": 1203,
      "ä»»": 1204,
      "è®°": 1205,
      "å®Ī": 1206,
      "å¹³çĶŁ": 1207,
      "æŃ¦": 1208,
      "åħ¹": 1209,
      "å¯º": 1210,
      "æ³½": 1211,
      "èį£": 1212,
      "è§Ĵ": 1213,
      "èĮħ": 1214,
      "ä¸¾": 1215,
      "å¹¸": 1216,
      "èį¯": 1217,
      "æĸ¯": 1218,
      "æĺİæľĪ": 1219,
      "æ²ī": 1220,
      "æī¬": 1221,
      "æ¯Ķ": 1222,
      "æ®¿": 1223,
      "ä¹Ł": 1224,
      "èĢĮ": 1225,
      "éĿĴå±±": 1226,
      "å£®": 1227,
      "æ²Ī": 1228,
      "å¡ŀ": 1229,
      "æ½®": 1230,
      "æ°¸": 1231,
      "ç¦ħ": 1232,
      "èıĬ": 1233,
      "åºĬ": 1234,
      "åİĨ": 1235,
      "ä¸ĺ": 1236,
      "æī¶": 1237,
      "æĢ»": 1238,
      "åºĲ": 1239,
      "æ³¥": 1240,
      "ä¿±": 1241,
      "çľī": 1242,
      "æ³ķ": 1243,
      "æ¤": 1244,
      "æ¡Ĥ": 1245,
      "æĬķ": 1246,
      "åį±": 1247,
      "éĽ¾": 1248,
      "æĵ": 1249,
      "å¼¦": 1250,
      "å¸Ĩ": 1251,
      "ç½¢": 1252,
      "éĴĵ": 1253,
      "ç§°": 1254,
      "æĻ¨": 1255,
      "èĨ": 1256,
      "å¦Ļ": 1257,
      "èĪį": 1258,
      "èİ²": 1259,
      "é³": 1260,
      "èį·": 1261,
      "åĵī": 1262,
      "æ®Ĭ": 1263,
      "çĴ": 1264,
      "ä¼Ĺ": 1265,
      "ä»°": 1266,
      "æĿĸ": 1267,
      "çºµ": 1268,
      "å®µ": 1269,
      "èµ°": 1270,
      "åĳ³": 1271,
      "èĤł": 1272,
      "æ·¡": 1273,
      "æ¹ĺ": 1274,
      "å½¢": 1275,
      "ç¨Ģ": 1276,
      "èŁ": 1277,
      "åĲĦ": 1278,
      "ä»£": 1279,
      "æķħäºº": 1280,
      "åĢŁ": 1281,
      "é£İéĽ¨": 1282,
      "æĪĺ": 1283,
      "åµ": 1284,
      "å£ĳ": 1285,
      "æ´²": 1286,
      "èµ¤": 1287,
      "å¼ł": 1288,
      "æĭĽ": 1289,
      "é£İåĲ¹": 1290,
      "éĺĻ": 1291,
      "åĨĻ": 1292,
      "æĥŃ": 1293,
      "çŃĸ": 1294,
      "æ¸¡": 1295,
      "éĴ±": 1296,
      "ä¼´": 1297,
      "è¶Ĭ": 1298,
      "æ´Ĺ": 1299,
      "ç¤¼": 1300,
      "åĭ¤": 1301,
      "æĭŁ": 1302,
      "å©": 1303,
      "åıĭ": 1304,
      "åĢĴ": 1305,
      "ä»ĬæĹ¥": 1306,
      "æŀ¯": 1307,
      "åĩĦ": 1308,
      "çĽĽ": 1309,
      "åĨį": 1310,
      "éĽ·": 1311,
      "çĽĪ": 1312,
      "ç¬¬": 1313,
      "åı²": 1314,
      "å¢¨": 1315,
      "æ±Ŀ": 1316,
      "ä¿®": 1317,
      "æĹ¢": 1318,
      "æĺ¼": 1319,
      "ç¹": 1320,
      "çĳ¶": 1321,
      "è¿½": 1322,
      "ç§¯": 1323,
      "äºĨ": 1324,
      "æĿ¡": 1325,
      "å¼ķ": 1326,
      "èį¡": 1327,
      "çĪ¶": 1328,
      "éģį": 1329,
      "ä½Ľ": 1330,
      "èª": 1331,
      "è¯į": 1332,
      "æĩ": 1333,
      "æļĸ": 1334,
      "æĺ¨": 1335,
      "æĴ": 1336,
      "å½ĴæĿ¥": 1337,
      "èŀ": 1338,
      "ä¹ī": 1339,
      "ç§ĭé£İ": 1340,
      "æİ©": 1341,
      "æµ©": 1342,
      "ç«¥": 1343,
      "é©±": 1344,
      "æī¿": 1345,
      "çĢ": 1346,
      "å¼º": 1347,
      "äºķ": 1348,
      "å¯¿": 1349,
      "æļĤ": 1350,
      "èµı": 1351,
      "æ¹¿": 1352,
      "èĢ³": 1353,
      "éĺĳ": 1354,
      "çĻ¾å¹´": 1355,
      "æĢ§": 1356,
      "éľĦ": 1357,
      "ä¸įè§ģ": 1358,
      "çº¦": 1359,
      "ä¸Ľ": 1360,
      "éĢĶ": 1361,
      "éĻħ": 1362,
      "éĥģ": 1363,
      "æĭ¥": 1364,
      "æī«": 1365,
      "åĦĴ": 1366,
      "æĭľ": 1367,
      "åĨħ": 1368,
      "è±¡": 1369,
      "æ¸º": 1370,
      "æ¯į": 1371,
      "æ¶§": 1372,
      "èİº": 1373,
      "è¢«": 1374,
      "æªĲ": 1375,
      "åĪĹ": 1376,
      "æĮĤ": 1377,
      "å¸Ń": 1378,
      "éģ¿": 1379,
      "æĸĭ": 1380,
      "å£¶": 1381,
      "å¤ı": 1382,
      "æ·®": 1383,
      "åĲı": 1384,
      "å®ĩ": 1385,
      "å°±": 1386,
      "æºĲ": 1387,
      "è°ĥ": 1388,
      "æ¢ħèĬ±": 1389,
      "å¿į": 1390,
      "æµĳ": 1391,
      "å·¥": 1392,
      "å½¼": 1393,
      "èĢķ": 1394,
      "éĨĴ": 1395,
      "åĬ¿": 1396,
      "ä¸Ī": 1397,
      "å®ŀ": 1398,
      "ç®¡": 1399,
      "å¢Ļ": 1400,
      "çĽĸ": 1401,
      "é¸¥": 1402,
      "åĵį": 1403,
      "éĺ¶": 1404,
      "éĽ¶": 1405,
      "æĪĸ": 1406,
      "æ·»": 1407,
      "é¸¾": 1408,
      "ä½©": 1409,
      "åºľ": 1410,
      "åİĮ": 1411,
      "ä¾µ": 1412,
      "ç§Ģ": 1413,
      "éĻ¤": 1414,
      "å¤·": 1415,
      "é©¾": 1416,
      "ä¸¥": 1417,
      "çİ¯": 1418,
      "åĽŀé¦ĸ": 1419,
      "å¤©åľ°": 1420,
      "çĥĽ": 1421,
      "æĢħ": 1422,
      "è½®": 1423,
      "æĬ«": 1424,
      "ç¾¡": 1425,
      "é©°": 1426,
      "å±Ĥ": 1427,
      "æĿľ": 1428,
      "é¥¥": 1429,
      "æ¯Ľ": 1430,
      "ä½Ļ": 1431,
      "æ¨½": 1432,
      "åħ»": 1433,
      "éģ£": 1434,
      "éģĤ": 1435,
      "å¼Ħ": 1436,
      "è¥Ł": 1437,
      "å¯¥": 1438,
      "ç¦ģ": 1439,
      "æµħ": 1440,
      "éĥŃ": 1441,
      "æĶ¿": 1442,
      "ç¤¾": 1443,
      "å¾¡": 1444,
      "ä¾Ľ": 1445,
      "åĺī": 1446,
      "åĩĢ": 1447,
      "å¹¿": 1448,
      "åĩĮ": 1449,
      "ç¾Ĭ": 1450,
      "çĲ¼": 1451,
      "æ¶Ľ": 1452,
      "è®¿": 1453,
      "æĹłäºº": 1454,
      "æ´Ĵ": 1455,
      "èĮ¶": 1456,
      "åĽº": 1457,
      "å¥Ī": 1458,
      "éĵģ": 1459,
      "é¼İ": 1460,
      "ç¹ģ": 1461,
      "æĢª": 1462,
      "å±ŀ": 1463,
      "ä¸ľé£İ": 1464,
      "åĿ¤": 1465,
      "å¯Į": 1466,
      "æŃ¢": 1467,
      "ç¯ĩ": 1468,
      "å¡ĺ": 1469,
      "å¦¨": 1470,
      "ç»£": 1471,
      "åĴı": 1472,
      "ç¿©": 1473,
      "ç©¿": 1474,
      "çĮ¿": 1475,
      "å²³": 1476,
      "ç¯±": 1477,
      "è¢ĸ": 1478,
      "æİ¨": 1479,
      "åħ¼": 1480,
      "åıĹ": 1481,
      "èĲ¥": 1482,
      "å¢ĥ": 1483,
      "éģĩ": 1484,
      "æĪ¿": 1485,
      "ä¸°": 1486,
      "çĨŁ": 1487,
      "åĩĿ": 1488,
      "èįĨ": 1489,
      "è§ŀ": 1490,
      "æĹĹ": 1491,
      "éĹŃ": 1492,
      "éĽĨ": 1493,
      "æ±ŁåįĹ": 1494,
      "å¿ł": 1495,
      "æĢ¨": 1496,
      "å´ĸ": 1497,
      "æĹĮ": 1498,
      "æĮ¥": 1499,
      "åģľ": 1500,
      "æĨ": 1501,
      "éĺ¿": 1502,
      "è°ĵ": 1503,
      "è±ª": 1504,
      "é¬¼": 1505,
      "éĻ¶": 1506,
      "å¯¸": 1507,
      "å±ı": 1508,
      "å®¾": 1509,
      "è¯Ŀ": 1510,
      "å¼Ł": 1511,
      "å·®": 1512,
      "å¦Ĥä½ķ": 1513,
      "æ´¥": 1514,
      "çĥ¦": 1515,
      "éĽħ": 1516,
      "æ²¡": 1517,
      "æ²¾": 1518,
      "èĭı": 1519,
      "çĹķ": 1520,
      "å½ĵå¹´": 1521,
      "æµ¦": 1522,
      "ä»ĺ": 1523,
      "éĢĤ": 1524,
      "æĶĢ": 1525,
      "æīĺ": 1526,
      "æħ°": 1527,
      "æ£¹": 1528,
      "åĢ¦": 1529,
      "ç´¯": 1530,
      "çĻ½åıĳ": 1531,
      "æĹĭ": 1532,
      "æ´Ľ": 1533,
      "é£İæµģ": 1534,
      "è°ĭ": 1535,
      "æĩĴ": 1536,
      "æĹħ": 1537,
      "åĸ§": 1538,
      "äºĪ": 1539,
      "æľį": 1540,
      "åı¯æĢľ": 1541,
      "çĿ¡": 1542,
      "åįĩ": 1543,
      "æ¸ł": 1544,
      "å¦Ĩ": 1545,
      "æĤłæĤł": 1546,
      "çĽ¸éĢ¢": 1547,
      "åľĨ": 1548,
      "åłķ": 1549,
      "èĦ±": 1550,
      "çŁ£": 1551,
      "æļĳ": 1552,
      "èĲĿ": 1553,
      "å®Ĺ": 1554,
      "åľº": 1555,
      "è¥¿é£İ": 1556,
      "é¦Ĩ": 1557,
      "éĥĬ": 1558,
      "å¸ĥ": 1559,
      "è§Ĩ": 1560,
      "åºĻ": 1561,
      "è¾ī": 1562,
      "å¼¹": 1563,
      "åĨ¬": 1564,
      "å¯Ĩ": 1565,
      "ä¹¾åĿ¤": 1566,
      "äº¡": 1567,
      "è²": 1568,
      "èĩ´": 1569,
      "çĤī": 1570,
      "åĶĲ": 1571,
      "ç³»": 1572,
      "å±±ä¸Ń": 1573,
      "èĬĻ": 1574,
      "æ³Ľ": 1575,
      "è¡Ģ": 1576,
      "ä¹°": 1577,
      "çĮ®": 1578,
      "ç¨ĭ": 1579,
      "èĴ²": 1580,
      "¤Ĳ": 1581,
      "æ¼ł": 1582,
      "éĢł": 1583,
      "å½©": 1584,
      "åĭ¿": 1585,
      "è¾¾": 1586,
      "åĽĬ": 1587,
      "é¥±": 1588,
      "é¹¿": 1589,
      "è§ħ": 1590,
      "å¥Ķ": 1591,
      "å°Ŀ": 1592,
      "çĺ¦": 1593,
      "ç¦½": 1594,
      "åįĪ": 1595,
      "åª": 1596,
      "çĶ²": 1597,
      "åķĨ": 1598,
      "æµģæ°´": 1599,
      "æŁı": 1600,
      "è¸ª": 1601,
      "ç´¢": 1602,
      "å¤ķéĺ³": 1603,
      "èİ±": 1604,
      "çª¥": 1605,
      "åĽ¢": 1606,
      "è¸ı": 1607,
      "å·¾": 1608,
      "æµĵ": 1609,
      "é¥Ń": 1610,
      "ç¥ĸ": 1611,
      "å®½": 1612,
      "å¤©æ¶¯": 1613,
      "å¦ĩ": 1614,
      "å¨ģ": 1615,
      "è¿Ŀ": 1616,
      "æĿĢ": 1617,
      "åĶ±": 1618,
      "åĻ": 1619,
      "èģļ": 1620,
      "çıį": 1621,
      "çĤİ": 1622,
      "æ©": 1623,
      "è£³": 1624,
      "éħ¬": 1625,
      "ä»ģ": 1626,
      "åĨľ": 1627,
      "èĥĮ": 1628,
      "éĥ¡": 1629,
      "æĬ¤": 1630,
      "å§¿": 1631,
      "è¡¨": 1632,
      "åĶ¯": 1633,
      "å¥ī": 1634,
      "ä¿¯": 1635,
      "æĹ¥æľĪ": 1636,
      "ç¾ŀ": 1637,
      "æµİ": 1638,
      "è¯ļ": 1639,
      "èĿ¶": 1640,
      "åĽ´": 1641,
      "ä½ķäºº": 1642,
      "å·¢": 1643,
      "è¦Ĩ": 1644,
      "æ¬£": 1645,
      "çķĶ": 1646,
      "åħĪçĶŁ": 1647,
      "è¾°": 1648,
      "èĭĳ": 1649,
      "æ±Łæ¹ĸ": 1650,
      "éĶĢ": 1651,
      "æ¨µ": 1652,
      "ç²ī": 1653,
      "æ¡Ĳ": 1654,
      "æ¼ı": 1655,
      "åĶ¤": 1656,
      "åĲĲ": 1657,
      "æĶ¯": 1658,
      "æĸĩç«ł": 1659,
      "èħ°": 1660,
      "èĵī": 1661,
      "éĺĶ": 1662,
      "è¿¢": 1663,
      "å¥ı": 1664,
      "é»ĳ": 1665,
      "åį¿": 1666,
      "åħĦ": 1667,
      "æģ¶": 1668,
      "æĽ¹": 1669,
      "æŀľ": 1670,
      "ç¬Ľ": 1671,
      "åĮº": 1672,
      "å®ħ": 1673,
      "è¶ĭ": 1674,
      "è¡Ķ": 1675,
      "éĻ©": 1676,
      "åĪĢ": 1677,
      "çŀ»": 1678,
      "æīī": 1679,
      "åķ¸": 1680,
      "ä½ķæĹ¶": 1681,
      "èħ¾": 1682,
      "èĬĻèĵī": 1683,
      "ä¼ı": 1684,
      "é¢ĩ": 1685,
      "èįĲ": 1686,
      "ç»®": 1687,
      "ä¼¯": 1688,
      "åĪ©": 1689,
      "æ¸©": 1690,
      "åİĭ": 1691,
      "éŀŃ": 1692,
      "èĺ": 1693,
      "èī³": 1694,
      "è¶£": 1695,
      "èĪĨ": 1696,
      "å°Ħ": 1697,
      "ç¿¼": 1698,
      "èľĢ": 1699,
      "åĸĦ": 1700,
      "çŃµ": 1701,
      "ä½ķå¦Ĥ": 1702,
      "çľģ": 1703,
      "å«Į": 1704,
      "æ½ľ": 1705,
      "èĲ½æĹ¥": 1706,
      "æ¡ĥèĬ±": 1707,
      "å¯ŀ": 1708,
      "æĪı": 1709,
      "å»¶": 1710,
      "æ¸Ĭ": 1711,
      "èĥ¸": 1712,
      "çĽĬ": 1713,
      "å±¥": 1714,
      "æģĭ": 1715,
      "åįĥè½½": 1716,
      "åŁĥ": 1717,
      "æĮ¯": 1718,
      "åıł": 1719,
      "å±¡": 1720,
      "éĻį": 1721,
      "ä¾į": 1722,
      "æ£®": 1723,
      "å¤©ä¸ĭ": 1724,
      "çĻ½æĹ¥": 1725,
      "å®´": 1726,
      "äººçĶŁ": 1727,
      "éĶģ": 1728,
      "çıŃ": 1729,
      "è¿Ľ": 1730,
      "å®£": 1731,
      "çº¸": 1732,
      "èĤĥ": 1733,
      "æĿĤ": 1734,
      "èµĸ": 1735,
      "èĲ§èĲ§": 1736,
      "ä»ª": 1737,
      "åı·": 1738,
      "åĨ²": 1739,
      "è¿Ķ": 1740,
      "åĢĻ": 1741,
      "åĿĽ": 1742,
      "èĴĻ": 1743,
      "æŁ´": 1744,
      "çµ": 1745,
      "åįľ": 1746,
      "åİ¿": 1747,
      "æ¯«": 1748,
      "èĻ«": 1749,
      "æīģ": 1750,
      "éĻ¢": 1751,
      "ç»´": 1752,
      "çĶļ": 1753,
      "åįł": 1754,
      "åł¤": 1755,
      "ç°ª": 1756,
      "çŃī": 1757,
      "æ¾Ħ": 1758,
      "å¼ĥ": 1759,
      "é¸¦": 1760,
      "ä¸įå¾Ĺ": 1761,
      "ä¹ŀ": 1762,
      "èµł": 1763,
      "çķĮ": 1764,
      "è¾Ī": 1765,
      "çĦī": 1766,
      "æ¦»": 1767,
      "çĽ¸æĢĿ": 1768,
      "éĵľ": 1769,
      "ä¸½": 1770,
      "çĳŁ": 1771,
      "è¯¯": 1772,
      "æĪĪ": 1773,
      "éķ¿å®ī": 1774,
      "æ¸ħé£İ": 1775,
      "åįĥåı¤": 1776,
      "æ³£": 1777,
      "åīª": 1778,
      "èµĲ": 1779,
      "ç¬¼": 1780,
      "æ±Łä¸Ĭ": 1781,
      "åºŁ": 1782,
      "ç¥ł": 1783,
      "è£ĺ": 1784,
      "é»Ħéĩĳ": 1785,
      "ç¥ĩ": 1786,
      "è¿Ĳ": 1787,
      "æĳ©": 1788,
      "å²ģæľĪ": 1789,
      "çķı": 1790,
      "å·¦": 1791,
      "æ½Ń": 1792,
      "æŁĵ": 1793,
      "æ®·": 1794,
      "å¹ķ": 1795,
      "ä¹į": 1796,
      "å¸Ĳ": 1797,
      "è¡¡": 1798,
      "æ¸ļ": 1799,
      "å®¦": 1800,
      "å¯Ĥå¯ŀ": 1801,
      "æĿ³": 1802,
      "åįĥå¹´": 1803,
      "èĬĿ": 1804,
      "åº§": 1805,
      "æĻĸ": 1806,
      "çīµ": 1807,
      "ç¾ģ": 1808,
      "ç¼ĸ": 1809,
      "é²ľ": 1810,
      "éĢĢ": 1811,
      "çº·çº·": 1812,
      "å¤©ä¸Ĭ": 1813,
      "ç£¨": 1814,
      "éĻĲ": 1815,
      "è¯ı": 1816,
      "ç®Ģ": 1817,
      "çĥĤ": 1818,
      "ç¦ı": 1819,
      "æĺŃ": 1820,
      "åŃĿ": 1821,
      "åĪĺ": 1822,
      "åĵŃ": 1823,
      "ä¸įèĥ½": 1824,
      "ç®«": 1825,
      "éĢ¸": 1826,
      "èĿī": 1827,
      "çĹ´": 1828,
      "çģŃ": 1829,
      "ç«ŀ": 1830,
      "æłı": 1831,
      "é³ŀ": 1832,
      "æ¬¡": 1833,
      "æ½ĩ": 1834,
      "ä½ķäºĭ": 1835,
      "ç¿°": 1836,
      "å®īå¾Ĺ": 1837,
      "æ¢§": 1838,
      "èĤ¥": 1839,
      "éħĮ": 1840,
      "æŁ±": 1841,
      "ç¢ĳ": 1842,
      "åı¸": 1843,
      "çĻ½å¤´": 1844,
      "éĽĢ": 1845,
      "æĶ¹": 1846,
      "å¾Ĭ": 1847,
      "ç½®": 1848,
      "æ¾¹": 1849,
      "å¦ĤæŃ¤": 1850,
      "è°ģèĥ½": 1851,
      "åŃ°": 1852,
      "æ»´": 1853,
      "çģ°": 1854,
      "å±Ī": 1855,
      "ä¸ª": 1856,
      "éĻĨ": 1857,
      "æ²»": 1858,
      "ä¾§": 1859,
      "ä¸įé¡»": 1860,
      "è¡¥": 1861,
      "å·§": 1862,
      "è¾Ľ": 1863,
      "èĪĴ": 1864,
      "æīģèĪŁ": 1865,
      "å¿Ļ": 1866,
      "å¹´å¹´": 1867,
      "å¢ŀ": 1868,
      "åģ¥": 1869,
      "æĪİ": 1870,
      "å°¾": 1871,
      "éªļ": 1872,
      "æħ¨": 1873,
      "çº¤": 1874,
      "å½ĵæĹ¶": 1875,
      "éĽķ": 1876,
      "èĤī": 1877,
      "é¤Ĳ": 1878,
      "æľĪæĺİ": 1879,
      "æį¢": 1880,
      "å°¤": 1881,
      "å±ķ": 1882,
      "æ±Łå±±": 1883,
      "åĬ«": 1884,
      "èªĩ": 1885,
      "æľĶ": 1886,
      "å¾Ĳ": 1887,
      "æµ®äºĳ": 1888,
      "çĸ¾": 1889,
      "çŃĳ": 1890,
      "ä¼Ĭ": 1891,
      "é©»": 1892,
      "é¢ł": 1893,
      "åĪĩ": 1894,
      "å§ĵ": 1895,
      "å¶": 1896,
      "é¡¶": 1897,
      "åĩ»": 1898,
      "è£ģ": 1899,
      "æł½": 1900,
      "éĴ©": 1901,
      "å·±": 1902,
      "èģĶ": 1903,
      "èī°": 1904,
      "å³¨": 1905,
      "é²ģ": 1906,
      "å´ĩ": 1907,
      "çķ¥": 1908,
      "è¿ģ": 1909,
      "èĻ¹": 1910,
      "èĦļ": 1911,
      "é¹Ń": 1912,
      "æ³Ĭ": 1913,
      "ç«¿": 1914,
      "ä¸įå¦Ĥ": 1915,
      "è¿¥": 1916,
      "åĮĨ": 1917,
      "ç¿Ķ": 1918,
      "æĸĳ": 1919,
      "çĬ¬": 1920,
      "å½Ĵåİ»": 1921,
      "æīĩ": 1922,
      "èħ¹": 1923,
      "æ°ı": 1924,
      "è¾Ł": 1925,
      "å··": 1926,
      "èĻŀ": 1927,
      "éŁµ": 1928,
      "é¡·": 1929,
      "é¢Ĩ": 1930,
      "ç¬¦": 1931,
      "ç»µ": 1932,
      "æ¶¦": 1933,
      "éħ£": 1934,
      "èĹ¤": 1935,
      "ä¸Ģç¬ĳ": 1936,
      "å°ĳå¹´": 1937,
      "é½¿": 1938,
      "èĽĩ": 1939,
      "æĸ½": 1940,
      "æŃ¤æĹ¥": 1941,
      "ä½ĵ": 1942,
      "èĽ®": 1943,
      "å§ĳ": 1944,
      "çĥ§": 1945,
      "æĢĴ": 1946,
      "èł": 1947,
      "åħ®": 1948,
      "å¾ĺ": 1949,
      "éº¦": 1950,
      "éĻĮ": 1951,
      "æľĭ": 1952,
      "èĬ³èįī": 1953,
      "æĢģ": 1954,
      "åī©": 1955,
      "æĤŁ": 1956,
      "è¢į": 1957,
      "å¾ĺå¾Ĭ": 1958,
      "åĪ¶": 1959,
      "åĨ»": 1960,
      "æĿ¨æŁ³": 1961,
      "çĳŀ": 1962,
      "ç½ĳ": 1963,
      "ä¾£": 1964,
      "åħ¸": 1965,
      "é©¿": 1966,
      "è¢ħ": 1967,
      "æİ¢": 1968,
      "çīĻ": 1969,
      "åħ·": 1970,
      "å§Ķ": 1971,
      "æĬļ": 1972,
      "åħį": 1973,
      "ç¬Ļ": 1974,
      "ä¸įæĺ¯": 1975,
      "æħĪ": 1976,
      "å²Ľ": 1977,
      "ä½ķæĹ¥": 1978,
      "éº»": 1979,
      "é£İå°ĺ": 1980,
      "æ¿¯": 1981,
      "ç»Ń": 1982,
      "åºĨ": 1983,
      "èĸ°": 1984,
      "è¤": 1985,
      "åĬĿ": 1986,
      "ä»²": 1987,
      "æĿŁ": 1988,
      "èĬ¦": 1989,
      "å½»": 1990,
      "éºŁ": 1991,
      "ä¸Ģçīĩ": 1992,
      "èĮ«èĮ«": 1993,
      "äº©": 1994,
      "è°ģçŁ¥": 1995,
      "ä¸īå¹´": 1996,
      "æĿı": 1997,
      "è¯·": 1998,
      "è´¹": 1999,
      "å°ĨåĨĽ": 2000,
      "æĹ¦": 2001,
      "åİļ": 2002,
      "ç»§": 2003,
      "ä¸»äºº": 2004,
      "ä¸ģ": 2005,
      "åĿļ": 2006,
      "å»º": 2007,
      "æĥł": 2008,
      "æľīé¦Ģ": 2009,
      "åĬŁåĲį": 2010,
      "æĺĮ": 2011,
      "åºĦ": 2012,
      "æ¶ķ": 2013,
      "åĪ»": 2014,
      "æİĴ": 2015,
      "çĴ§": 2016,
      "å¼±": 2017,
      "çĵľ": 2018,
      "åŃĶ": 2019,
      "å¿«": 2020,
      "éľı": 2021,
      "ç¨į": 2022,
      "æıĲ": 2023,
      "ç¶": 2024,
      "æ£ł": 2025,
      "åĭĭ": 2026,
      "éľŃ": 2027,
      "å®Ľ": 2028,
      "æĹģ": 2029,
      "åĬł": 2030,
      "å¯Ĳ": 2031,
      "æĭĻ": 2032,
      "æĳ§": 2033,
      "æĺ¥èī²": 2034,
      "æħķ": 2035,
      "å¼ĵ": 2036,
      "èĬľ": 2037,
      "ç±»": 2038,
      "èįīæľ¨": 2039,
      "èĻĳ": 2040,
      "æŀ«": 2041,
      "åĽ°": 2042,
      "æĥ¨": 2043,
      "åĪĻ": 2044,
      "åįĥç§ĭ": 2045,
      "æĹ·": 2046,
      "çºª": 2047,
      "çº¶": 2048,
      "æ¡ĥæĿİ": 2049,
      "éĩı": 2050,
      "çī§": 2051,
      "æľ«": 2052,
      "æµĬ": 2053,
      "åłĨ": 2054,
      "åĿ¡": 2055,
      "åıį": 2056,
      "èŀį": 2057,
      "æĿĲ": 2058,
      "è§¦": 2059,
      "æİĮ": 2060,
      "ä¿Ŀ": 2061,
      "å¨ĩ": 2062,
      "åįĹå±±": 2063,
      "çĦļ": 2064,
      "èĹľ": 2065,
      "å³¡": 2066,
      "ä¸įåłª": 2067,
      "æ»©": 2068,
      "çĻ»ä¸´": 2069,
      "èĩ³ä»Ĭ": 2070,
      "ç±į": 2071,
      "èĬ±å¼Ģ": 2072,
      "çµ®": 2073,
      "æ§İ": 2074,
      "éĻª": 2075,
      "æļĩ": 2076,
      "æĸ°è¯Ĺ": 2077,
      "ä»İæŃ¤": 2078,
      "åı¤äºº": 2079,
      "æŃĩ": 2080,
      "è´±": 2081,
      "åĲĽåŃĲ": 2082,
      "å¦į": 2083,
      "æ³ł": 2084,
      "æ»¨": 2085,
      "è®µ": 2086,
      "åº·": 2087,
      "é¹Ĭ": 2088,
      "æıĴ": 2089,
      "çĪ½": 2090,
      "å½¹": 2091,
      "éĻĩ": 2092,
      "åŁĭ": 2093,
      "éĺ»": 2094,
      "éľģ": 2095,
      "èĹī": 2096,
      "å¼¥": 2097,
      "éī": 2098,
      "æĻĭ": 2099,
      "ä¹ł": 2100,
      "åį°": 2101,
      "è¶ħ": 2102,
      "æ¿Ģ": 2103,
      "èĵ¬èİ±": 2104,
      "å±±å·Ŀ": 2105,
      "æ£ĭ": 2106,
      "æľ¯": 2107,
      "åĲ¯": 2108,
      "æĢķ": 2109,
      "ç©´": 2110,
      "é¥¶": 2111,
      "æŁĶ": 2112,
      "ç¥Ŀ": 2113,
      "è¯µ": 2114,
      "è¾ĵ": 2115,
      "è´ª": 2116,
      "æķĮ": 2117,
      "éĺħ": 2118,
      "è®¤": 2119,
      "éī´": 2120,
      "ä¸ĢæŀĿ": 2121,
      "èķĬ": 2122,
      "èĽŁ": 2123,
      "æ§Ľ": 2124,
      "çĥĪ": 2125,
      "éģ®": 2126,
      "çĥŁéľŀ": 2127,
      "ç§ģ": 2128,
      "åĽĽæµ·": 2129,
      "æ¶Ĥ": 2130,
      "æ±Ĺ": 2131,
      "èĨı": 2132,
      "çĥŃ": 2133,
      "æī§": 2134,
      "èĲ½èĬ±": 2135,
      "èĲį": 2136,
      "åı³": 2137,
      "éĢĿ": 2138,
      "æµ·ä¸Ĭ": 2139,
      "èĩªæľī": 2140,
      "è¡Įäºº": 2141,
      "å¦¾": 2142,
      "è¶ģ": 2143,
      "åĩ¡": 2144,
      "åĨī": 2145,
      "æ¿Ľ": 2146,
      "çĽŁ": 2147,
      "éĤĳ": 2148,
      "å±Ĳ": 2149,
      "æĥĨ": 2150,
      "èĲ¦": 2151,
      "åĨĪ": 2152,
      "ç¬ĭ": 2153,
      "çļĭ": 2154,
      "æĥĨæĢħ": 2155,
      "èİ½": 2156,
      "éĤĢ": 2157,
      "èŃ": 2158,
      "ç¦Ħ": 2159,
      "ä¸Ńæľī": 2160,
      "ä¸įæĪĲ": 2161,
      "åªļ": 2162,
      "å±Ģ": 2163,
      "æĦļ": 2164,
      "ç²Ł": 2165,
      "éģŃ": 2166,
      "åĢį": 2167,
      "è¯»ä¹¦": 2168,
      "éŁ©": 2169,
      "è°©": 2170,
      "æłĩ": 2171,
      "åĲŀ": 2172,
      "ç»Ľ": 2173,
      "çĹĽ": 2174,
      "äººå®¶": 2175,
      "æ·¹": 2176,
      "æĺĨ": 2177,
      "èµĦ": 2178,
      "èĢ¿": 2179,
      "æīĵ": 2180,
      "å¹»": 2181,
      "å¥ĳ": 2182,
      "ä¿ĥ": 2183,
      "å±±æ°´": 2184,
      "åĪĨæĺİ": 2185,
      "è¾¨": 2186,
      "æºŁ": 2187,
      "éĤ¦": 2188,
      "åļ": 2189,
      "æĭ¾": 2190,
      "åĩı": 2191,
      "ä¾¬": 2192,
      "èĦī": 2193,
      "ç¨»": 2194,
      "ç»ĩ": 2195,
      "å¨Ł": 2196,
      "æ´ª": 2197,
      "éĹ¾": 2198,
      "çļİ": 2199,
      "è¹Ħ": 2200,
      "ç±³": 2201,
      "æļĿ": 2202,
      "éģĲ": 2203,
      "åĩłæĹ¶": 2204,
      "ç¼¨": 2205,
      "ç¶µ": 2206,
      "å¨±": 2207,
      "æĪĴ": 2208,
      "ç¾İäºº": 2209,
      "åĵģ": 2210,
      "ç¥ŀä»Ļ": 2211,
      "è´¨": 2212,
      "ç¢İ": 2213,
      "å®ĭ": 2214,
      "éĶĻ": 2215,
      "åľĥ": 2216,
      "ä¸ĩåı¤": 2217,
      "é¢ĵ": 2218,
      "åįļ": 2219,
      "åįģéĩĮ": 2220,
      "åıŁ": 2221,
      "ç¥¥": 2222,
      "åĲ¦": 2223,
      "ä»Ĺ": 2224,
      "éĺµ": 2225,
      "åħĶ": 2226,
      "éķĩ": 2227,
      "èħĬ": 2228,
      "å²ļ": 2229,
      "å¹´æĿ¥": 2230,
      "é»ĺ": 2231,
      "èĤ©": 2232,
      "çĲħ": 2233,
      "æį²": 2234,
      "é¾Ł": 2235,
      "èĳĽ": 2236,
      "å°§": 2237,
      "éĿĴäºĳ": 2238,
      "åĢ¼": 2239,
      "è¡«": 2240,
      "æ¶ī": 2241,
      "è´ŀ": 2242,
      "ä½ķé¡»": 2243,
      "çī¹": 2244,
      "æĹ¥æļ®": 2245,
      "çĵ¦": 2246,
      "å¦»": 2247,
      "æĵį": 2248,
      "ä¸ĢæĹ¶": 2249,
      "å²ĳ": 2250,
      "æĮ½": 2251,
      "åįģäºĮ": 2252,
      "å¤¹": 2253,
      "æ²§æµ·": 2254,
      "æķħä¹¡": 2255,
      "ä»Ļäºº": 2256,
      "é¸³": 2257,
      "åĲĬ": 2258,
      "çķª": 2259,
      "åħĢ": 2260,
      "åĿł": 2261,
      "çº±": 2262,
      "åįĸ": 2263,
      "éĢĥ": 2264,
      "åĩ¿": 2265,
      "ä½ķå¿ħ": 2266,
      "çķ´": 2267,
      "æĹ¥æĹ¥": 2268,
      "æ»ŀ": 2269,
      "å±±èī²": 2270,
      "æľīæĹ¶": 2271,
      "ä»Ĭå¹´": 2272,
      "ä¸įä¸º": 2273,
      "å¥´": 2274,
      "æ»ĭ": 2275,
      "åĬ©": 2276,
      "åĴ¸": 2277,
      "éĶ¡": 2278,
      "ä¸ľåįĹ": 2279,
      "å¤Ħå¤Ħ": 2280,
      "åģĩ": 2281,
      "èĹ»": 2282,
      "åĴ«": 2283,
      "æī°": 2284,
      "æŀī": 2285,
      "ä»İæĿ¥": 2286,
      "æĸľéĺ³": 2287,
      "æ¶¨": 2288,
      "å¡Ķ": 2289,
      "ç¥Ĺ": 2290,
      "è§Ī": 2291,
      "ç¼ĵ": 2292,
      "ç§ĭèī²": 2293,
      "ä¸ŃåİŁ": 2294,
      "æ¢¢": 2295,
      "è´¾": 2296,
      "æĸĻ": 2297,
      "åĩ«": 2298,
      "è§Ħ": 2299,
      "è¡£åĨł": 2300,
      "å¸½": 2301,
      "é¡¿": 2302,
      "å·¨": 2303,
      "æ±¤": 2304,
      "çĵ¶": 2305,
      "åĩĭ": 2306,
      "ä¸įçĶ¨": 2307,
      "æ¬º": 2308,
      "å¾µ": 2309,
      "å®ł": 2310,
      "å¸·": 2311,
      "ç¬¬ä¸Ģ": 2312,
      "èĮĤ": 2313,
      "åŃŁ": 2314,
      "ä»ĬæľĿ": 2315,
      "å»Ĭ": 2316,
      "æ§Ĳ": 2317,
      "çĶ·": 2318,
      "æ³¨": 2319,
      "ä¸Ģå¤ľ": 2320,
      "æ±Łæ°´": 2321,
      "ç¨³": 2322,
      "éĶĦ": 2323,
      "è¥¿å±±": 2324,
      "éĺ²": 2325,
      "å¨¥": 2326,
      "ä¸ĩäºĭ": 2327,
      "ä»Ĩ": 2328,
      "çĮİ": 2329,
      "åº¶": 2330,
      "é»į": 2331,
      "åıĤå·®": 2332,
      "åĤ²": 2333,
      "å¯Įè´µ": 2334,
      "ä¹Ķ": 2335,
      "çİ©": 2336,
      "åŀ£": 2337,
      "ä¸ĢæĹ¥": 2338,
      "é¢Ĥ": 2339,
      "é»ĦèĬ±": 2340,
      "èŁł": 2341,
      "åĲĽçİĭ": 2342,
      "å¾ª": 2343,
      "ä¸īæľĪ": 2344,
      "åĪº": 2345,
      "åį«": 2346,
      "å¤Ļ": 2347,
      "é¢ĺè¯Ĺ": 2348,
      "æķħåĽŃ": 2349,
      "åĴ½": 2350,
      "åŀĴ": 2351,
      "æķĽ": 2352,
      "æĺİæľĿ": 2353,
      "åįķ": 2354,
      "å»·": 2355,
      "æ¡Ī": 2356,
      "åĴ«å°º": 2357,
      "å²ĤæĹł": 2358,
      "éĢ¾": 2359,
      "åģĥ": 2360,
      "ä¸ĸäºĭ": 2361,
      "éŀį": 2362,
      "å¾ĭ": 2363,
      "åĩºéĹ¨": 2364,
      "åĮª": 2365,
      "èĤĿ": 2366,
      "ä¸İåĲĽ": 2367,
      "æ´ģ": 2368,
      "æĹ¬": 2369,
      "é£Ļ": 2370,
      "ç©ºå±±": 2371,
      "ä¸įæķ¢": 2372,
      "éŃĦ": 2373,
      "éļħ": 2374,
      "æĬĽ": 2375,
      "åŃ£": 2376,
      "èĭ±éĽĦ": 2377,
      "æĹłéĻĲ": 2378,
      "éļľ": 2379,
      "è¢Ĥ": 2380,
      "éĹ¨åīį": 2381,
      "æĥŁæľī": 2382,
      "éŁ¶": 2383,
      "æ´»": 2384,
      "æ¯ķ": 2385,
      "èĸĩ": 2386,
      "çĽ¸å¯¹": 2387,
      "é²¸": 2388,
      "å¢ĵ": 2389,
      "å¤ļå°ĳ": 2390,
      "çĢĽ": 2391,
      "èĢĢ": 2392,
      "äº¦æľī": 2393,
      "åĩ°": 2394,
      "å®¸": 2395,
      "é»¯": 2396,
      "æ£ĺ": 2397,
      "å³¦": 2398,
      "è±Ĩ": 2399,
      "èĬ±èĲ½": 2400,
      "å¤©åŃĲ": 2401,
      "é£İäºĳ": 2402,
      "ç§ĳ": 2403,
      "çĽ¸è§ģ": 2404,
      "æ¸´": 2405,
      "èµµ": 2406,
      "å¸Į": 2407,
      "ä¸īåįĥ": 2408,
      "æ¢¦ä¸Ń": 2409,
      "æĢ¯": 2410,
      "çĥ½": 2411,
      "é£Ĵ": 2412,
      "æ³°": 2413,
      "æ¶µ": 2414,
      "èĪĮ": 2415,
      "æł¼": 2416,
      "åı¤ä»Ĭ": 2417,
      "åºı": 2418,
      "åī§": 2419,
      "ç¼ķ": 2420,
      "èĴ¿": 2421,
      "èĬĴ": 2422,
      "æ¢¨": 2423,
      "è¡®": 2424,
      "éĿĴå¤©": 2425,
      "æ¶Īæģ¯": 2426,
      "ä¼ĺ": 2427,
      "ä»·": 2428,
      "ä½ķä»¥": 2429,
      "åİ»å¹´": 2430,
      "èĭĹ": 2431,
      "éĦ": 2432,
      "ä¸ĢæľĿ": 2433,
      "æ¾ľ": 2434,
      "æ°Ľ": 2435,
      "æŁ¯": 2436,
      "ä¸ľè¥¿": 2437,
      "ä¸ĸéĹ´": 2438,
      "çĵ®": 2439,
      "æı¡": 2440,
      "æĮŁ": 2441,
      "åįĹåĮĹ": 2442,
      "çŃ¹": 2443,
      "åįģè½½": 2444,
      "ç¥Ģ": 2445,
      "é£İæľĪ": 2446,
      "èļķ": 2447,
      "åĩĽ": 2448,
      "éĢ¼": 2449,
      "èĬ¬": 2450,
      "æĥ¯": 2451,
      "æĽĻ": 2452,
      "æ¥¼åı°": 2453,
      "æ¤į": 2454,
      "ç¿©ç¿©": 2455,
      "æĹłäºĭ": 2456,
      "æŃ¤æĹ¶": 2457,
      "å®°": 2458,
      "æķ¬": 2459,
      "æ²Ł": 2460,
      "ä¸įèĥľ": 2461,
      "æ¹¾": 2462,
      "æĪį": 2463,
      "æģ°": 2464,
      "éĿ¡": 2465,
      "è£ħ": 2466,
      "è·ĥ": 2467,
      "ä¿Ħ": 2468,
      "ç»ĥ": 2469,
      "èĢģåİ»": 2470,
      "ä¸Ģå£°": 2471,
      "ä¸§": 2472,
      "å·´": 2473,
      "æķĪ": 2474,
      "ä½¿åĲĽ": 2475,
      "æĺ¨å¤ľ": 2476,
      "è¥¿æ¹ĸ": 2477,
      "ç¨ļ": 2478,
      "é¹Ħ": 2479,
      "è´¼": 2480,
      "çĭ¼": 2481,
      "èľĤ": 2482,
      "çĿĢ": 2483,
      "èĩªæĺ¯": 2484,
      "éĹº": 2485,
      "ç§ĭæ°´": 2486,
      "ç²²": 2487,
      "çħ®": 2488,
      "å±±æŀĹ": 2489,
      "éĢı": 2490,
      "éĩįæĿ¥": 2491,
      "åºµ": 2492,
      "ä½ķå¦¨": 2493,
      "æŃ¤èº«": 2494,
      "çºµæ¨ª": 2495,
      "ä¹³": 2496,
      "éªĦ": 2497,
      "æĪĳäº¦": 2498,
      "æ®·åĭ¤": 2499,
      "åĩłäºº": 2500,
      "çĶµ": 2501,
      "åĿŁ": 2502,
      "åħħ": 2503,
      "æ±Ģ": 2504,
      "å²ģå¯Ĵ": 2505,
      "ç¨½": 2506,
      "å½Ń": 2507,
      "éŃı": 2508,
      "ä½ķæīĢ": 2509,
      "æ¶Į": 2510,
      "åįĥéĩĳ": 2511,
      "å¤ªå¹³": 2512,
      "ä¸įå¤į": 2513,
      "æ±²": 2514,
      "æ··": 2515,
      "æ²¦": 2516,
      "èµ´": 2517,
      "åĳĬ": 2518,
      "æĻı": 2519,
      "æł·": 2520,
      "ä½į": 2521,
      "å¤ľæ·±": 2522,
      "æłª": 2523,
      "ä¸įåĪ°": 2524,
      "éĿĴéĿĴ": 2525,
      "ä¸ĢæĽ²": 2526,
      "å·¡": 2527,
      "æİĪ": 2528,
      "èĲ§æĿ¡": 2529,
      "èıľ": 2530,
      "èĮĹ": 2531,
      "æĹłç©·": 2532,
      "ç»ª": 2533,
      "è®©": 2534,
      "çĭĲ": 2535,
      "è°ª": 2536,
      "æĸ§": 2537,
      "ç»ĪæĹ¥": 2538,
      "é¼ł": 2539,
      "å¤º": 2540,
      "æĽ³": 2541,
      "è¹ĩ": 2542,
      "æĤĶ": 2543,
      "éĥ¨": 2544,
      "å²Ĳ": 2545,
      "æĹłå¿ĥ": 2546,
      "ç¿³": 2547,
      "çĻ½é¦ĸ": 2548,
      "ç¦¹": 2549,
      "æĦĪ": 2550,
      "ä¸ĢæĿ¯": 2551,
      "æķ²": 2552,
      "ä¸įå°½": 2553,
      "ç¦¾": 2554,
      "å±±ä¸ĭ": 2555,
      "éļĨ": 2556,
      "çĥ¹": 2557,
      "çŁ«": 2558,
      "æŃ¤åľ°": 2559,
      "æ½º": 2560,
      "èĶ¬": 2561,
      "èļģ": 2562,
      "åĻ¨": 2563,
      "èĥĨ": 2564,
      "ä¸įå¦¨": 2565,
      "éĽı": 2566,
      "åĪļ": 2567,
      "ä¸ºåĲĽ": 2568,
      "ç¼ł": 2569,
      "åĩłåº¦": 2570,
      "çĤĬ": 2571,
      "éĹ»éģĵ": 2572,
      "è½¦é©¬": 2573,
      "è¡¢": 2574,
      "ä½ķå¹´": 2575,
      "è²Į": 2576,
      "æĺ¥æĿ¥": 2577,
      "åĩĦåĩī": 2578,
      "æĹłä¸Ģ": 2579,
      "èµĬ": 2580,
      "çĺ´": 2581,
      "æ¢µ": 2582,
      "æĤ´": 2583,
      "ä¸įèĩª": 2584,
      "è´¥": 2585,
      "éħ¸": 2586,
      "èĦ©": 2587,
      "è¡Ĺ": 2588,
      "èĴ¸": 2589,
      "è®²": 2590,
      "çıĬ": 2591,
      "èįĶ": 2592,
      "æĺ¥åħī": 2593,
      "è®®": 2594,
      "æģį": 2595,
      "èĶ½": 2596,
      "éĹ½": 2597,
      "çĶ±æĿ¥": 2598,
      "ä¼¤å¿ĥ": 2599,
      "èĮĥ": 2600,
      "ç¼Ģ": 2601,
      "éĢĴ": 2602,
      "ä»ĸå¹´": 2603,
      "çº¢å°ĺ": 2604,
      "åĩ¤åĩ°": 2605,
      "ç¾¹": 2606,
      "æĹłå¤į": 2607,
      "æ³»": 2608,
      "åģ·": 2609,
      "çĨĻ": 2610,
      "ä¾ĿçĦ¶": 2611,
      "ç¡": 2612,
      "ç¥¸": 2613,
      "èĸª": 2614,
      "çŁ¶": 2615,
      "æ¦Ĩ": 2616,
      "èĩĤ": 2617,
      "çĻ¾éĩĮ": 2618,
      "çĽ¸çľĭ": 2619,
      "æĤ£": 2620,
      "èĭįèĮ«": 2621,
      "æı½": 2622,
      "æĪĳæĿ¥": 2623,
      "æ¸Ń": 2624,
      "å¶Ĥ": 2625,
      "å²«": 2626,
      "å¬": 2627,
      "ä¼«": 2628,
      "çªŁ": 2629,
      "æ´ŀåºŃ": 2630,
      "çľ·": 2631,
      "æĿĥ": 2632,
      "è¾±": 2633,
      "è±¹": 2634,
      "ä¼Ĳ": 2635,
      "åĪ«ç¦»": 2636,
      "èĵĳ": 2637,
      "çłļ": 2638,
      "åĮ¹": 2639,
      "æĻº": 2640,
      "å¯Ŀ": 2641,
      "ç±ģ": 2642,
      "ä½ķæĽ¾": 2643,
      "ç£¬": 2644,
      "çŃĶ": 2645,
      "é¦¨": 2646,
      "çº³": 2647,
      "æµ´": 2648,
      "åĢı": 2649,
      "èĭįèĭį": 2650,
      "çĢĳ": 2651,
      "è·¨": 2652,
      "å¥ļ": 2653,
      "èĺĭ": 2654,
      "éĢĨ": 2655,
      "æµ¸": 2656,
      "åį¢": 2657,
      "è¾½": 2658,
      "äºİä»Ĭ": 2659,
      "èĽ¾": 2660,
      "ç§ĺ": 2661,
      "æľªèĥ½": 2662,
      "åĩ½": 2663,
      "å¹½äºº": 2664,
      "èīĩ": 2665,
      "å£¤": 2666,
      "åĲĳæĿ¥": 2667,
      "çľº": 2668,
      "ä½ķå½ĵ": 2669,
      "åıĶ": 2670,
      "æ¬¾": 2671,
      "é»Ħæĺı": 2672,
      "å°ĺåŁĥ": 2673,
      "å±¯": 2674,
      "å¤ĩ": 2675,
      "ä¸ĵ": 2676,
      "æĪ´": 2677,
      "éħ¿": 2678,
      "è£Ļ": 2679,
      "çªģ": 2680,
      "èį«": 2681,
      "éĢī": 2682,
      "éĥĳ": 2683,
      "çľĭèĬ±": 2684,
      "ç¬³": 2685,
      "æ©ĺ": 2686,
      "æĭĶ": 2687,
      "åįĳ": 2688,
      "åı¬": 2689,
      "èĨĿ": 2690,
      "å¦Ĥä»Ĭ": 2691,
      "ä¿Ĭ": 2692,
      "å¯Ĥå¯Ĥ": 2693,
      "å¥ĭ": 2694,
      "éĹ¨å¤ĸ": 2695,
      "èįīåłĤ": 2696,
      "è°ģå®¶": 2697,
      "ç§ī": 2698,
      "åĨ¢": 2699,
      "æ¥«": 2700,
      "é¾Ħ": 2701,
      "æ¼¾": 2702,
      "åĨ³": 2703,
      "é«¯": 2704,
      "å²Ĥä¸į": 2705,
      "ä¾Ŀä¾Ŀ": 2706,
      "æĳĺ": 2707,
      "ç¼¥": 2708,
      "åĩłåĽŀ": 2709,
      "æ·±å¤Ħ": 2710,
      "çĿ¹": 2711,
      "å±±æ²³": 2712,
      "äºĶèī²": 2713,
      "é³Į": 2714,
      "įéģ¥": 2715,
      "åĿĩ": 2716,
      "çĶŁæ¶¯": 2717,
      "ä¸įè¯Ĩ": 2718,
      "æ¢¯": 2719,
      "åĥ»": 2720,
      "åĥı": 2721,
      "èŁ¾": 2722,
      "ç¬º": 2723,
      "å·į": 2724,
      "äºĳå±±": 2725,
      "çĽĲ": 2726,
      "å¦ĸ": 2727,
      "æĭį": 2728,
      "éĢįéģ¥": 2729,
      "è®¾": 2730,
      "ä¸ºè°ģ": 2731,
      "å¾Ģäºĭ": 2732,
      "çĻ¾å°º": 2733,
      "éľĸ": 2734,
      "éĽ¨éľ²": 2735,
      "ä»ĵ": 2736,
      "è°ģä¸İ": 2737,
      "åı©": 2738,
      "æĺİæĹ¥": 2739,
      "èĮħå±ĭ": 2740,
      "æį§": 2741,
      "æĹłç«¯": 2742,
      "æ¹Ľ": 2743,
      "é£İåħī": 2744,
      "çķ¦": 2745,
      "éĽ¶èĲ½": 2746,
      "æĲľ": 2747,
      "çĸ²": 2748,
      "å¤®": 2749,
      "åįĴ": 2750,
      "ç¾²": 2751,
      "çĸĨ": 2752,
      "éģ½": 2753,
      "é¹ħ": 2754,
      "éĨª": 2755,
      "ç¿łå¾®": 2756,
      "ç¯·": 2757,
      "é»Ľ": 2758,
      "çĽ¸æľĽ": 2759,
      "ç®Ń": 2760,
      "éĽ¨è¿ĩ": 2761,
      "èĢ»": 2762,
      "ä¼¦": 2763,
      "çļ®": 2764,
      "éĹ±": 2765,
      "æħİ": 2766,
      "äºĴ": 2767,
      "èµ«": 2768,
      "è®¶": 2769,
      "åĭĴ": 2770,
      "æģ¼": 2771,
      "é¹°": 2772,
      "èģĮ": 2773,
      "ä¸īå¾Ħ": 2774,
      "èĬ½": 2775,
      "è¾ĩ": 2776,
      "æķ´": 2777,
      "æ²Ĳ": 2778,
      "ä¸įçĽ¸": 2779,
      "é¸¯": 2780,
      "çº¿": 2781,
      "èĸľ": 2782,
      "è¯Ĺäºº": 2783,
      "çĻ½çİī": 2784,
      "è´º": 2785,
      "åº¸": 2786,
      "æ²½": 2787,
      "éĶĭ": 2788,
      "è°Ĵ": 2789,
      "æ¯ĭ": 2790,
      "ä¸Ģå¹´": 2791,
      "æ»ĳ": 2792,
      "æ¬ł": 2793,
      "åŁŁ": 2794,
      "ä¸įä½ľ": 2795,
      "è£Ĥ": 2796,
      "å´Ķ": 2797,
      "éľĵ": 2798,
      "æħµ": 2799,
      "èĶĵ": 2800,
      "èĢ½": 2801,
      "èĭŁ": 2802,
      "åĲĽå®¶": 2803,
      "æ±¡": 2804,
      "ä¸ºæĪĳ": 2805,
      "æİ·": 2806,
      "å¢Ł": 2807,
      "èĢ¸": 2808,
      "ç»ĨéĽ¨": 2809,
      "ç©¹": 2810,
      "ç¯Ĩ": 2811,
      "ä½Ĳ": 2812,
      "ç¼º": 2813,
      "æĵħ": 2814,
      "çħĮ": 2815,
      "çŁľ": 2816,
      "çŃĩ": 2817,
      "è¯Ĺä¹¦": 2818,
      "ä»ŀ": 2819,
      "èķī": 2820,
      "é¸³é¸¯": 2821,
      "åĦ¿å¥³": 2822,
      "é¢ľèī²": 2823,
      "èĢĲ": 2824,
      "åĮ¡": 2825,
      "éĹŃéĹ¨": 2826,
      "èĲ½åı¶": 2827,
      "èĲ¤": 2828,
      "éľĩ": 2829,
      "ç½²": 2830,
      "æ¼łæ¼ł": 2831,
      "éĢŁ": 2832,
      "éĵŃ": 2833,
      "çĵ¢": 2834,
      "æľ½": 2835,
      "æŃ¤å¿ĥ": 2836,
      "å¯Ĥå¯¥": 2837,
      "æģ£": 2838,
      "çī¢": 2839,
      "åĭĩ": 2840,
      "æį®": 2841,
      "è£¾": 2842,
      "èĶ¼": 2843,
      "åĮ»": 2844,
      "çĶ«": 2845,
      "ä¾ĿæĹ§": 2846,
      "å¯¡": 2847,
      "é£İçĥŁ": 2848,
      "ä¸¹éĿĴ": 2849,
      "é«ĺæ¥¼": 2850,
      "åį®": 2851,
      "æĿ¿": 2852,
      "è´¯": 2853,
      "å¯ĵ": 2854,
      "å·«": 2855,
      "åı«": 2856,
      "æĺ¥æ°´": 2857,
      "æĬ½": 2858,
      "æľªå¾Ĺ": 2859,
      "çļĵ": 2860,
      "æŀ¶": 2861,
      "æįĲ": 2862,
      "è¡¾": 2863,
      "æģĴ": 2864,
      "éĻĤ": 2865,
      "æĪĳæ¬²": 2866,
      "æ¢¦éĩĮ": 2867,
      "å¯°": 2868,
      "æĪļ": 2869,
      "èĹĵ": 2870,
      "åĮĨåĮĨ": 2871,
      "é»İ": 2872,
      "æľīå®¢": 2873,
      "å¾ĢæĿ¥": 2874,
      "è²Ĥ": 2875,
      "çłĮ": 2876,
      "ä¸įè§ī": 2877,
      "é¡½": 2878,
      "æħ·": 2879,
      "éĻĦ": 2880,
      "ä½ķä¸º": 2881,
      "å¤ļæĥħ": 2882,
      "çĻ½éĽª": 2883,
      "èº¬": 2884,
      "ä»ĸæĹ¥": 2885,
      "æ¯¡": 2886,
      "åĤ¥": 2887,
      "å¯»å¸¸": 2888,
      "ä¸ĢçĶŁ": 2889,
      "çŁ¥å·±": 2890,
      "èĩªåı¤": 2891,
      "è¾Ļ": 2892,
      "éĴ§": 2893,
      "ä»Ĭåı¤": 2894,
      "èĹ©": 2895,
      "ä½³äºº": 2896,
      "èĦĤ": 2897,
      "çĶ³": 2898,
      "é¹ĥ": 2899,
      "ç²¾ç¥ŀ": 2900,
      "æŀĹä¸ĭ": 2901,
      "ä¸Ģèº«": 2902,
      "è¾Ķ": 2903,
      "æĦıæ°Ķ": 2904,
      "äºĳä¸Ń": 2905,
      "æ¸¸åŃĲ": 2906,
      "ä»İå®¹": 2907,
      "æĿ°": 2908,
      "æ´ĭ": 2909,
      "ç°ĩ": 2910,
      "èİ·": 2911,
      "æľīäºº": 2912,
      "æ»Ķ": 2913,
      "ä¹İ": 2914,
      "ä¸īåįģ": 2915,
      "èĢĥ": 2916,
      "çģ¶": 2917,
      "å¹ħ": 2918,
      "æķħåĽ½": 2919,
      "çĬ¹æľª": 2920,
      "éĽī": 2921,
      "ç©Ĩ": 2922,
      "èĵĿ": 2923,
      "æĹłæĥħ": 2924,
      "æµĨ": 2925,
      "å¤ľæľĪ": 2926,
      "æĪŁ": 2927,
      "èº¯": 2928,
      "è½¯": 2929,
      "æĹ§æ¸¸": 2930,
      "ä¸įåĲĮ": 2931,
      "åĬ²": 2932,
      "æŁ´éĹ¨": 2933,
      "å¤ľéĽ¨": 2934,
      "çģ¯çģ«": 2935,
      "ä¸´é£İ": 2936,
      "å²ģæĻļ": 2937,
      "çŁ¥éŁ³": 2938,
      "çªĪ": 2939,
      "é¼»": 2940,
      "æĿ¥å¾Ģ": 2941,
      "é¹ı": 2942,
      "è¾ĥ": 2943,
      "èĳ±": 2944,
      "åĪ°å¤Ħ": 2945,
      "éĵº": 2946,
      "è±ģ": 2947,
      "èĮİ": 2948,
      "èĻı": 2949,
      "å©Ĩ": 2950,
      "äººäºĭ": 2951,
      "é©¹": 2952,
      "æ¡ĵ": 2953,
      "é©Ń": 2954,
      "æ±Łå¤´": 2955,
      "äººå¿ĥ": 2956,
      "èı²": 2957,
      "æĨĶ": 2958,
      "èªī": 2959,
      "è´¡": 2960,
      "æķ·": 2961,
      "åĺ¶": 2962,
      "æłĭ": 2963,
      "åľŃ": 2964,
      "æīĳ": 2965,
      "èĪľ": 2966,
      "ç¢į": 2967,
      "æĹ±": 2968,
      "éĢłåĮĸ": 2969,
      "æĤłçĦ¶": 2970,
      "çīĸ": 2971,
      "è°ģä¸º": 2972,
      "æĿ¾æŁı": 2973,
      "å¥Īä½ķ": 2974,
      "é£ĺéĽ¶": 2975,
      "ç»³": 2976,
      "éĻĭ": 2977,
      "æŃ¤çĶŁ": 2978,
      "åĩłå¹´": 2979,
      "è¹ī": 2980,
      "çĬ¹æľī": 2981,
      "æĨĶæĤ´": 2982,
      "çĽĨ": 2983,
      "èĩ¾": 2984,
      "åĤħ": 2985,
      "æľµ": 2986,
      "ä¸įåıĬ": 2987,
      "ä½ķçĶ¨": 2988,
      "èĩªæĢľ": 2989,
      "éª¥": 2990,
      "åĭī": 2991,
      "å»ī": 2992,
      "å¿ĥäºĭ": 2993,
      "é¸ł": 2994,
      "çĭ¬ç«ĭ": 2995,
      "åĨ¥åĨ¥": 2996,
      "ç¼Ī": 2997,
      "åķĦ": 2998,
      "éĻŁ": 2999,
      "éªĬ": 3000,
      "è¯ĹæĪĲ": 3001,
      "ä¸ľå±±": 3002,
      "æĺĤ": 3003,
      "çĻ»é«ĺ": 3004,
      "çº¡": 3005,
      "èĥ¸ä¸Ń": 3006,
      "æ²§æµª": 3007,
      "è¿¢è¿¢": 3008,
      "è£¹": 3009,
      "æµ®çĶŁ": 3010,
      "éĽį": 3011,
      "ç½ª": 3012,
      "å§¬": 3013,
      "çĽĹ": 3014,
      "æĹłè¨Ģ": 3015,
      "åī²": 3016,
      "éªı": 3017,
      "å°½æĹ¥": 3018,
      "æ±Łæµ·": 3019,
      "çģĮ": 3020,
      "çĥŁéĽ¨": 3021,
      "éĤ£å¾Ĺ": 3022,
      "æĹ¶æĹ¶": 3023,
      "åįģæĹ¥": 3024,
      "è½½éħĴ": 3025,
      "åĢĺ": 3026,
      "æ£±": 3027,
      "ä¸įèĤ¯": 3028,
      "å¦ĥ": 3029,
      "åħŃæľĪ": 3030,
      "æľªå¿ħ": 3031,
      "ä¸įè¶³": 3032,
      "éģĵäºº": 3033,
      "ä¹Ŀéĩį": 3034,
      "çĦ¦": 3035,
      "ä¸Īå¤«": 3036,
      "åĲī": 3037,
      "èħ¥": 3038,
      "å¤©é£İ": 3039,
      "èĲĭ": 3040,
      "å¾Ļ": 3041,
      "çĶ»åĽ¾": 3042,
      "é¡º": 3043,
      "åĦ¿ç«¥": 3044,
      "æ¦ľ": 3045,
      "èķĻ": 3046,
      "æĸĩåŃĹ": 3047,
      "åº¾": 3048,
      "æĽ°": 3049,
      "èĥ¥": 3050,
      "ç½Ĺæµ®": 3051,
      "ç²Ĺ": 3052,
      "å¦Ĵ": 3053,
      "å·³": 3054,
      "æĮī": 3055,
      "ä¸ĸäºº": 3056,
      "èĻ¬": 3057,
      "æīĥ": 3058,
      "çłĤ": 3059,
      "ä¹ı": 3060,
      "åı¤æĿ¥": 3061,
      "æĺ¥èįī": 3062,
      "éĺ®": 3063,
      "ç§ĭå£°": 3064,
      "ç¯ģ": 3065,
      "æªĦ": 3066,
      "è¹īè·": 3067,
      "é©´": 3068,
      "ç²¤": 3069,
      "èľ¡": 3070,
      "ä¸ŀ": 3071,
      "æĸŁ": 3072,
      "éĺĳå¹²": 3073,
      "æµ£": 3074,
      "æĻ¦": 3075,
      "æ¹ĸå±±": 3076,
      "çĮĽ": 3077,
      "è°Ĳ": 3078,
      "ä»ķ": 3079,
      "æ½¦": 3080,
      "åįĥå±±": 3081,
      "æ¤Ĵ": 3082,
      "ä¿¯ä»°": 3083,
      "çªĥ": 3084,
      "ä»İä»Ĭ": 3085,
      "åħ¬åŃĲ": 3086,
      "çŁ¥åĲĽ": 3087,
      "åŁº": 3088,
      "æĺ¥éĽ¨": 3089,
      "æľĪèī²": 3090,
      "çĬĢ": 3091,
      "éķ«": 3092,
      "éħĴæĿ¯": 3093,
      "æĹĨ": 3094,
      "åĳĪ": 3095,
      "åįĥå³°": 3096,
      "ç¬ł": 3097,
      "ç¼¥ç¼Ī": 3098,
      "å¤ľåįĬ": 3099,
      "äºĶæ¹ĸ": 3100,
      "è¹īè·İ": 3101,
      "è¿Ī": 3102,
      "é£ŀæĿ¥": 3103,
      "äºĳæ°Ķ": 3104,
      "ç£´": 3105,
      "åıªæľī": 3106,
      "ä¹ĸ": 3107,
      "é¡»èĩ¾": 3108,
      "å¦Ħ": 3109,
      "å¼Ĺ": 3110,
      "èĲ¼": 3111,
      "åıªä»Ĭ": 3112,
      "çĮľ": 3113,
      "æĭĪ": 3114,
      "èªĵ": 3115,
      "çİīæłĳ": 3116,
      "éĩĬ": 3117,
      "åįĵ": 3118,
      "æķĿ": 3119,
      "åİ¨": 3120,
      "èĪ¬": 3121,
      "æĭ±": 3122,
      "ç®Ĺ": 3123,
      "ç¿®": 3124,
      "æ¼Ĥ": 3125,
      "çĬ¹åľ¨": 3126,
      "åĵ²": 3127,
      "æŃĮèĪŀ": 3128,
      "éĤĪ": 3129,
      "éª¢": 3130,
      "çĨĬ": 3131,
      "åĲģ": 3132,
      "ä¿¦": 3133,
      "çł§": 3134,
      "é¢Ħ": 3135,
      "äºĮæľĪ": 3136,
      "è¡Įè¡Į": 3137,
      "çľ¼åīį": 3138,
      "æŃ¤åİ»": 3139,
      "æºªå±±": 3140,
      "éĴĹ": 3141,
      "å«ģ": 3142,
      "å«©": 3143,
      "è½´": 3144,
      "é«ĺåłĤ": 3145,
      "æĢħæľĽ": 3146,
      "æĬµ": 3147,
      "å®Ļ": 3148,
      "éģĵè·¯": 3149,
      "æ¹ĸä¸Ĭ": 3150,
      "èĪª": 3151,
      "ä¿İ": 3152,
      "æıĸ": 3153,
      "è¿Ĥ": 3154,
      "æºªä¸Ĭ": 3155,
      "å½Ĵè·¯": 3156,
      "èĳµ": 3157,
      "éº¾": 3158,
      "æĹłå£°": 3159,
      "æ¨¡": 3160,
      "èĭįçĶŁ": 3161,
      "æĹ¨": 3162,
      "åħĦå¼Ł": 3163,
      "åīĬ": 3164,
      "éĺ³æĺ¥": 3165,
      "èĭ¥ä¸º": 3166,
      "åĲ¾éģĵ": 3167,
      "é¸¿éĽģ": 3168,
      "æĺ¾": 3169,
      "é£İæ³¢": 3170,
      "åĮºåĮº": 3171,
      "æĹłå¤Ħ": 3172,
      "æľĿæĿ¥": 3173,
      "çıįéĩį": 3174,
      "åĪĳ": 3175,
      "è´®": 3176,
      "ä½ķçĶ±": 3177,
      "æº¯": 3178,
      "çİĩ": 3179,
      "åħ³å±±": 3180,
      "æĹı": 3181,
      "ä»ħ": 3182,
      "ç»ıå¹´": 3183,
      "éŀĭ": 3184,
      "æĹĮæĹĹ": 3185,
      "ä¼¸": 3186,
      "åİ¥": 3187,
      "æĭ¨": 3188,
      "ä½ķè¶³": 3189,
      "åĽĽæĹ¶": 3190,
      "æħ·æħ¨": 3191,
      "éľ¸": 3192,
      "æ»¡åľ°": 3193,
      "æĹłæķ°": 3194,
      "çİĭåŃĻ": 3195,
      "æį·": 3196,
      "çĵ¯": 3197,
      "æ¶ĵ": 3198,
      "éĺĸ": 3199,
      "è¾ķ": 3200,
      "åĲįå±±": 3201,
      "è°ı": 3202,
      "æĸĽ": 3203,
      "è¡²": 3204,
      "è¥Ħ": 3205,
      "é£İæĻ¯": 3206,
      "é²Ī": 3207,
      "è¿«": 3208,
      "å¥ķ": 3209,
      "èĳŃ": 3210,
      "è¢Ń": 3211,
      "ä»ĭ": 3212,
      "æĹłå¤ļ": 3213,
      "çĭ¬æľī": 3214,
      "ç®§": 3215,
      "å¤ľæĿ¥": 3216,
      "åĿı": 3217,
      "èĤĮ": 3218,
      "æĺ¥ç§ĭ": 3219,
      "ç¼Ħ": 3220,
      "åħĨ": 3221,
      "åĨ°éĽª": 3222,
      "å±ł": 3223,
      "ä¸įä¼¼": 3224,
      "éģģ": 3225,
      "é»Ħåı¶": 3226,
      "æĺ¨æĹ¥": 3227,
      "èīº": 3228,
      "çĥŁæ³¢": 3229,
      "çĲĲ": 3230,
      "æ¸¸äºº": 3231,
      "åĹĶ": 3232,
      "æī£": 3233,
      "åµ¬": 3234,
      "é²¤": 3235,
      "æĢĨ": 3236,
      "ç§ĭæĿ¥": 3237,
      "éļĻ": 3238,
      "èĩªç¬ĳ": 3239,
      "åħ½": 3240,
      "å¤ľå¤ľ": 3241,
      "æ²¿": 3242,
      "éĿĴæĺ¥": 3243,
      "é¬Ł": 3244,
      "çĬĬ": 3245,
      "ä¸ĩå£ĳ": 3246,
      "æĳĩèĲ½": 3247,
      "æł¡": 3248,
      "æĢ¡": 3249,
      "åĬŀ": 3250,
      "åĲĮå¿ĥ": 3251,
      "æ¨¯": 3252,
      "å¿ĨæĺĶ": 3253,
      "çĽ¸ä»İ": 3254,
      "æ±Łä¸ľ": 3255,
      "åŃ¤èĪŁ": 3256,
      "èĥ¡ä¸º": 3257,
      "éªĸ": 3258,
      "æµ©èį¡": 3259,
      "å¯ĩ": 3260,
      "åµ©": 3261,
      "é£İèµ·": 3262,
      "æģŃ": 3263,
      "éĴµ": 3264,
      "ä¸įå¿į": 3265,
      "æĪĳå¿ĥ": 3266,
      "è·»": 3267,
      "ä¸įå¾ħ": 3268,
      "ç¤º": 3269,
      "ä¹¦çĶŁ": 3270,
      "äºĶæĽ´": 3271,
      "ç°Ł": 3272,
      "æľīæĥħ": 3273,
      "äºĶäºĳ": 3274,
      "æŀĦ": 3275,
      "æįŁ": 3276,
      "æ£Ģ": 3277,
      "ä¸¸": 3278,
      "çĽı": 3279,
      "å®ĩå®Ļ": 3280,
      "éĽ¨åĲİ": 3281,
      "å³Ń": 3282,
      "é£İéľľ": 3283,
      "å²ĤçŁ¥": 3284,
      "æķĳ": 3285,
      "çļĦ": 3286,
      "æ´¾": 3287,
      "ä¸ľæµ·": 3288,
      "æ¶²": 3289,
      "ç®ķ": 3290,
      "è¯Ħ": 3291,
      "æľĪä¸ĭ": 3292,
      "æŃ¤ä¸Ń": 3293,
      "ä½ķä¼¼": 3294,
      "æĤ¦": 3295,
      "èĽĻ": 3296,
      "åĨīåĨī": 3297,
      "èĲ§çĦ¶": 3298,
      "çİīåłĤ": 3299,
      "çĻ»æ¥¼": 3300,
      "æľĹ": 3301,
      "æĲĶ": 3302,
      "æ½ĩæ¹ĺ": 3303,
      "å±±å¤´": 3304,
      "èŃ¦": 3305,
      "æĺ§": 3306,
      "æĮ¹": 3307,
      "èĽŁé¾Ļ": 3308,
      "æ¢¦éŃĤ": 3309,
      "å±¦": 3310,
      "æ²¼": 3311,
      "æ±Łæµģ": 3312,
      "æĨ©": 3313,
      "å¬ī": 3314,
      "å¤©å¯Ĵ": 3315,
      "çŁ¢": 3316,
      "åģ¶çĦ¶": 3317,
      "ä¸Ńæµģ": 3318,
      "æļ®äºĳ": 3319,
      "ä¸įéĹ»": 3320,
      "éĤª": 3321,
      "åĮĹé£İ": 3322,
      "çľĭå±±": 3323,
      "åºĶæľī": 3324,
      "åĨķ": 3325,
      "è¾Ħ": 3326,
      "å¢Ģ": 3327,
      "ä¸ĩçī©": 3328,
      "åĢ©": 3329,
      "è¯Ľ": 3330,
      "èĢĨ": 3331,
      "æĭ³": 3332,
      "æºľ": 3333,
      "çľ¸": 3334,
      "éĤĤ": 3335,
      "éĢħ": 3336,
      "ä¸Ģä½ķ": 3337,
      "ä¸Ģåı¶": 3338,
      "èħĲ": 3339,
      "çŃł": 3340,
      "æĹ¥å¤ľ": 3341,
      "èº«ä¸ĸ": 3342,
      "çĩķåŃĲ": 3343,
      "ä¸ĢçĤ¹": 3344,
      "æĺİå¹´": 3345,
      "ä¿¨": 3346,
      "è°Ĭ": 3347,
      "çĭĹ": 3348,
      "æ®µ": 3349,
      "éĤĤéĢħ": 3350,
      "å°ī": 3351,
      "å³»": 3352,
      "æ¸ħæĺİ": 3353,
      "åįĥä¸ĩ": 3354,
      "éĩįéĺ³": 3355,
      "çĬ¹èĩª": 3356,
      "æµĩ": 3357,
      "èĭĩ": 3358,
      "éĩĳçŁ³": 3359,
      "å»¿": 3360,
      "åĪ«æľī": 3361,
      "è±«": 3362,
      "æ¶¤": 3363,
      "ç²±": 3364,
      "æĺ¯éĿŀ": 3365,
      "èĢģå¤«": 3366,
      "ä¸įè§£": 3367,
      "é£İåīį": 3368,
      "åĨ¶": 3369,
      "æ²¹": 3370,
      "è®Ń": 3371,
      "è¿ĺå®¶": 3372,
      "é©¬è¹Ħ": 3373,
      "æĽ´æľī": 3374,
      "æ¯Ĵ": 3375,
      "å®¢æĿ¥": 3376,
      "åĩłæĹ¥": 3377,
      "æĺĶå¹´": 3378,
      "æŃ¤æĦı": 3379,
      "çº¹": 3380,
      "æ¹į": 3381,
      "åı¹æģ¯": 3382,
      "æķħå±±": 3383,
      "æĿ¾é£İ": 3384,
      "ç»¿éĺ´": 3385,
      "çĮ·": 3386,
      "å¡«": 3387,
      "æ¸ºæ¸º": 3388,
      "è¾Ľèĭ¦": 3389,
      "èĩªçŁ¥": 3390,
      "æ°´æµģ": 3391,
      "ä»¤äºº": 3392,
      "éĬ": 3393,
      "é»Ħæ²³": 3394,
      "æĽĽ": 3395,
      "ä¸Ģå¾Ħ": 3396,
      "çħİ": 3397,
      "èĮ§": 3398,
      "åįĹåĽ½": 3399,
      "éĢ¢äºº": 3400,
      "å¥¸": 3401,
      "è¹ĳ": 3402,
      "é¸Ń": 3403,
      "ç¿ĺ": 3404,
      "æ¦Ľ": 3405,
      "éĵ¶æ²³": 3406,
      "åĵ¦": 3407,
      "ä¸īå°º": 3408,
      "å¹²æĪĪ": 3409,
      "æĻ¶": 3410,
      "ä¸Ńå¤©": 3411,
      "åĬ¡": 3412,
      "æŀģçĽ®": 3413,
      "éĬ®": 3414,
      "åĿŀ": 3415,
      "æªĢ": 3416,
      "æµĻ": 3417,
      "äººæĥħ": 3418,
      "å¤ļçĹħ": 3419,
      "ç°¿": 3420,
      "å°ĺåľŁ": 3421,
      "åºķäºĭ": 3422,
      "åŃ¤åŁİ": 3423,
      "å°ļæľī": 3424,
      "æ´Ľéĺ³": 3425,
      "åĪ«åĲİ": 3426,
      "åŁİåįĹ": 3427,
      "å¯¸å¿ĥ": 3428,
      "æłĹ": 3429,
      "å¥ł": 3430,
      "å·ħ": 3431,
      "èİ«éģĵ": 3432,
      "éĤ£çŁ¥": 3433,
      "è¯¾": 3434,
      "ä¸Ģæ°´": 3435,
      "äººçī©": 3436,
      "çĽ¸æľŁ": 3437,
      "åħļ": 3438,
      "æ¢³": 3439,
      "åĨµå¤į": 3440,
      "çĬ¶": 3441,
      "æĥ¬": 3442,
      "çĶŁæŃ»": 3443,
      "å¤©å¤ĸ": 3444,
      "ä¸įæĿ¥": 3445,
      "èĭįèĭĶ": 3446,
      "æ§ģ": 3447,
      "æ°´äºĳ": 3448,
      "èŀº": 3449,
      "é«»": 3450,
      "åĮħ": 3451,
      "ä¸īæĽ´": 3452,
      "è°±": 3453,
      "ç¿ħ": 3454,
      "çĻ½é¸¥": 3455,
      "åĽŃæŀĹ": 3456,
      "éĵħ": 3457,
      "ä¸įåľ¨": 3458,
      "èĪĤ": 3459,
      "æģ»": 3460,
      "åĽŀå¤´": 3461,
      "èµŀ": 3462,
      "ä¸īå±±": 3463,
      "æĥ³è§ģ": 3464,
      "éĿĸ": 3465,
      "çĻ½çŁ³": 3466,
      "éºĵ": 3467,
      "ç¿Ľ": 3468,
      "çĳļ": 3469,
      "ç¥Ń": 3470,
      "å³¥": 3471,
      "äºŃäºŃ": 3472,
      "æĬĬéħĴ": 3473,
      "äºĶæľĪ": 3474,
      "æĸŃèĤł": 3475,
      "åĩºå¤Ħ": 3476,
      "çľ¼ä¸Ń": 3477,
      "èı±": 3478,
      "æĦ¤": 3479,
      "éĺŁ": 3480,
      "è¿¤": 3481,
      "è¡Įè·¯": 3482,
      "åĮ£": 3483,
      "éĩİäºº": 3484,
      "è¤Ĳ": 3485,
      "åĳľ": 3486,
      "ç§ĭæľĪ": 3487,
      "èĳ¬": 3488,
      "çªķ": 3489,
      "èĹķ": 3490,
      "å¤«åŃĲ": 3491,
      "èĤ¤": 3492,
      "éĵ¸": 3493,
      "äº¦ä½ķ": 3494,
      "æĿª": 3495,
      "å¹´åįİ": 3496,
      "å¤¸": 3497,
      "èµ¢": 3498,
      "ç¼ħ": 3499,
      "æİ§": 3500,
      "åģķ": 3501,
      "çıĳ": 3502,
      "è®¯": 3503,
      "åĤ¨": 3504,
      "å¨ĺ": 3505,
      "åŁİéĥŃ": 3506,
      "ç»¶": 3507,
      "èł¹": 3508,
      "åµĺ": 3509,
      "éĵĥ": 3510,
      "ä¸įç¦ģ": 3511,
      "è°ħ": 3512,
      "æĤĦ": 3513,
      "æ¡ĥæºĲ": 3514,
      "æĸ¯äºº": 3515,
      "å¾Ģå¾Ģ": 3516,
      "å¯Ĵé£Ł": 3517,
      "é±¼é¾Ļ": 3518,
      "è¾ħ": 3519,
      "å³¤": 3520,
      "æĹ§æĹ¶": 3521,
      "èĤĨ": 3522,
      "åĮĹæĸĹ": 3523,
      "æ¬¹": 3524,
      "æ²¸": 3525,
      "èĽ©": 3526,
      "ç¨·": 3527,
      "æ²§æ´²": 3528,
      "æı´": 3529,
      "æ¼Ĩ": 3530,
      "æ¸Ĭæĺİ": 3531,
      "éķ¿æ±Ł": 3532,
      "æīĢæĢĿ": 3533,
      "åļ£": 3534,
      "å¤Ń": 3535,
      "ä¸Ģä¸Ģ": 3536,
      "åįī": 3537,
      "è¡Ļ": 3538,
      "è¿©": 3539,
      "çİķ": 3540,
      "èĤº": 3541,
      "çĪµ": 3542,
      "å³¥åµĺ": 3543,
      "è¡£è£³": 3544,
      "æ¨Ĭ": 3545,
      "èĳ©": 3546,
      "å»ĵ": 3547,
      "çªĪçªķ": 3548,
      "æ±ŁåŁİ": 3549,
      "æ·³": 3550,
      "çģ¼": 3551,
      "æĢĢæĬ±": 3552,
      "æĸ¯æĸĩ": 3553,
      "ç»¡": 3554,
      "åĨ¤": 3555,
      "æ°´è¾¹": 3556,
      "ä¸ĩé¡·": 3557,
      "èĨº": 3558,
      "äº§": 3559,
      "ä¸īæĹ¥": 3560,
      "æ¿¡": 3561,
      "å¤©éĻħ": 3562,
      "ç»ľ": 3563,
      "éĹ»è¯´": 3564,
      "æľĪä¸Ĭ": 3565,
      "åŀĤæĿ¨": 3566,
      "æĹ¥èĲ½": 3567,
      "çĦļé¦Ļ": 3568,
      "æľªçŁ¥": 3569,
      "å¦Ĥæ°´": 3570,
      "åī¥": 3571,
      "é¢Ĳ": 3572,
      "æĨİ": 3573,
      "ç£Ĭ": 3574,
      "ä½ķåľ¨": 3575,
      "æ¤½": 3576,
      "é«ĺäºº": 3577,
      "æ¸ħç§ĭ": 3578,
      "å¨ĳ": 3579,
      "äº«": 3580,
      "æ¼«æ¼«": 3581,
      "æĶĴ": 3582,
      "åĨ¯": 3583,
      "ä¸ºå®¢": 3584,
      "éĤ®": 3585,
      "ç¢§äºĳ": 3586,
      "åĹ£": 3587,
      "ç¼ļ": 3588,
      "æĺ¥æ·±": 3589,
      "çĪ¶èĢģ": 3590,
      "éĽĮ": 3591,
      "çĲħçİķ": 3592,
      "æĶ»": 3593,
      "æĢĿåĲĽ": 3594,
      "èĩªçĦ¶": 3595,
      "ä¸ĳ": 3596,
      "æĬĹ": 3597,
      "ä¸įå½Ĵ": 3598,
      "è¡·": 3599,
      "éļıé£İ": 3600,
      "çİ²": 3601,
      "éª¸": 3602,
      "åŀĨ": 3603,
      "åºĹ": 3604,
      "åŁ¹": 3605,
      "ä¹ĺåħ´": 3606,
      "åı¤æľ¨": 3607,
      "çŁ¥æľī": 3608,
      "éĦĻ": 3609,
      "ç¹ģåįİ": 3610,
      "æĴŃ": 3611,
      "é¹¦": 3612,
      "åįĹæĿ¥": 3613,
      "ä¸įåıĹ": 3614,
      "è´»": 3615,
      "ç¾¸": 3616,
      "å¹´å°ĳ": 3617,
      "èī°éļ¾": 3618,
      "åĪį": 3619,
      "æ·¹çķĻ": 3620,
      "çİ°": 3621,
      "åħ³æ²³": 3622,
      "æº¢": 3623,
      "éķ¿åķ¸": 3624,
      "çŁ³ä¸Ĭ": 3625,
      "éŃĶ": 3626,
      "æľ¬æĹł": 3627,
      "æŀĹæ³ī": 3628,
      "çº²": 3629,
      "è¿ľæ¸¸": 3630,
      "èĵŁ": 3631,
      "æµ·æ£ł": 3632,
      "éĴĪ": 3633,
      "æĸľæĹ¥": 3634,
      "æī¬å·ŀ": 3635,
      "æ¥¹": 3636,
      "ç¨¼": 3637,
      "åĢŁéĹ®": 3638,
      "æ©Ĳ": 3639,
      "è§ģè¯´": 3640,
      "èĲ½èĲ½": 3641,
      "äºĳéĹ´": 3642,
      "åĩ¶": 3643,
      "èıĬèĬ±": 3644,
      "å¾Ĥ": 3645,
      "å½¤": 3646,
      "äº®": 3647,
      "åĲķ": 3648,
      "æľªåı¯": 3649,
      "åłĤåłĤ": 3650,
      "å¸Ľ": 3651,
      "æĭŃ": 3652,
      "åİĨåİĨ": 3653,
      "å®Į": 3654,
      "æľīæĹł": 3655,
      "åı¯èĥ½": 3656,
      "æºªæ°´": 3657,
      "åĲł": 3658,
      "é£İçĶŁ": 3659,
      "çĽ¸å¦Ĥ": 3660,
      "è·³": 3661,
      "è¯ī": 3662,
      "è¯Ĺåı¥": 3663,
      "é«ĺåį§": 3664,
      "è°ģå¤į": 3665,
      "æ»¡çľ¼": 3666,
      "é¸¡çĬ¬": 3667,
      "è¡ĮèĹı": 3668,
      "åĴĦ": 3669,
      "å¤ªå®Ī": 3670,
      "ç¦»ç¦»": 3671,
      "æ¦´": 3672,
      "æľĪæ»¡": 3673,
      "æĭĦ": 3674,
      "ä¸Ĭæľī": 3675,
      "ä¾Ŀç¨Ģ": 3676,
      "è°ģæĢľ": 3677,
      "å´Ķåµ¬": 3678,
      "è¥¿æĿ¥": 3679,
      "éķ¿çĶŁ": 3680,
      "èįīèī²": 3681,
      "æĺŁè¾°": 3682,
      "çĶ·åĦ¿": 3683,
      "æ·«": 3684,
      "åľ£ä¸»": 3685,
      "æĭĺ": 3686,
      "èİ¼": 3687,
      "ä¸ĩå¹´": 3688,
      "è¡Įä¹Ĳ": 3689,
      "æĽ´æĹł": 3690,
      "æ¡¡": 3691,
      "ä»Ĭå¤ķ": 3692,
      "æĮĳ": 3693,
      "æĲºæīĭ": 3694,
      "çĨı": 3695,
      "èĪ«": 3696,
      "åįģä¸ĩ": 3697,
      "æľŃ": 3698,
      "èĽ¾çľī": 3699,
      "æľªå½Ĵ": 3700,
      "æĹ¶èĬĤ": 3701,
      "ä¸ĩè±¡": 3702,
      "é£İæĿ¥": 3703,
      "å©´": 3704,
      "éŁ¦": 3705,
      "åİī": 3706,
      "çĬģ": 3707,
      "ä½ķè®¸": 3708,
      "ç¦»åĪ«": 3709,
      "èļ¤": 3710,
      "ä¾ł": 3711,
      "æ·ĳ": 3712,
      "èĢĮä»Ĭ": 3713,
      "æľªæľī": 3714,
      "èĩªä»İ": 3715,
      "èĢģäºº": 3716,
      "é¸¡é¸£": 3717,
      "åħīéĺ´": 3718,
      "å°Ĭåīį": 3719,
      "å®¶å±±": 3720,
      "èĬ³èı²": 3721,
      "çĬ¯": 3722,
      "ç²®": 3723,
      "æĺİçıł": 3724,
      "ç¸": 3725,
      "åŃĲåŃĻ": 3726,
      "å¾½": 3727,
      "æĿ¯éħĴ": 3728,
      "é©¯": 3729,
      "æļĦ": 3730,
      "èĲ±": 3731,
      "ç«Ń": 3732,
      "éĢģåĲĽ": 3733,
      "ç§ĭåħī": 3734,
      "é©¬ä¸Ĭ": 3735,
      "èĥİ": 3736,
      "æĤ½": 3737,
      "çĲ¶": 3738,
      "æĹłæīĢ": 3739,
      "æºħ": 3740,
      "åĹľ": 3741,
      "æī¶æ¡ĳ": 3742,
      "ç»ıè¿ĩ": 3743,
      "è¹Ĭ": 3744,
      "çİ²çıĳ": 3745,
      "èı°": 3746,
      "åĲ¸": 3747,
      "ä¸įåİĮ": 3748,
      "åĨĴ": 3749,
      "æĪĳæľī": 3750,
      "çī¡": 3751,
      "çıĬçĳļ": 3752,
      "çĻ½é©¬": 3753,
      "æĭ©": 3754,
      "å½·": 3755,
      "æīª": 3756,
      "éĺĬ": 3757,
      "æ¸ħåħī": 3758,
      "çĽĳ": 3759,
      "åĮĹå±±": 3760,
      "çĭ¬åĿĲ": 3761,
      "è°Īç¬ĳ": 3762,
      "åĨĢ": 3763,
      "æ³¢æ¶Ľ": 3764,
      "å¿Ŀ": 3765,
      "éĺľ": 3766,
      "æ¸ħæºª": 3767,
      "èİ²èĬ±": 3768,
      "é«ĺé£İ": 3769,
      "çĲ³": 3770,
      "è·µ": 3771,
      "æ¼±": 3772,
      "æ¢§æ¡Ĳ": 3773,
      "è¢ħè¢ħ": 3774,
      "çĻĸ": 3775,
      "æĿľé¹ĥ": 3776,
      "çħĸ": 3777,
      "åĪ«æĿ¥": 3778,
      "é©¼": 3779,
      "èį§": 3780,
      "æŀĹéĹ´": 3781,
      "äº¤æ¸¸": 3782,
      "æµĭ": 3783,
      "éĤ£åłª": 3784,
      "ç»©": 3785,
      "çĽ¸äº²": 3786,
      "éĸŁ": 3787,
      "äºĳéľĦ": 3788,
      "å¸ı": 3789,
      "éļ¾ä¸º": 3790,
      "æĴĳ": 3791,
      "çĽ¼": 3792,
      "æĹłåľ°": 3793,
      "éĺ¡": 3794,
      "è¿ľå±±": 3795,
      "ä¸įè´Ł": 3796,
      "è°ģè¯Ĩ": 3797,
      "å±¿": 3798,
      "èµĸæľī": 3799,
      "ä¸įè¾ŀ": 3800,
      "å¹Ħ": 3801,
      "å¹¡": 3802,
      "æĦŁæħ¨": 3803,
      "æĹłå¥Ī": 3804,
      "å¾Ģè¿ĺ": 3805,
      "å§ĵåĲį": 3806,
      "åħĭ": 3807,
      "äººè¨Ģ": 3808,
      "ä¸ĢéĨī": 3809,
      "åĪ¹": 3810,
      "æĿ¥æĹ¶": 3811,
      "åī¡": 3812,
      "ä¸įåºĶ": 3813,
      "è¯Ģ": 3814,
      "çĭİ": 3815,
      "èĬ±é¦Ļ": 3816,
      "åŃ¤äºĳ": 3817,
      "æľĪä¸Ń": 3818,
      "å®¹æĺĵ": 3819,
      "æľªæĪĲ": 3820,
      "å¤Ħå£«": 3821,
      "èºħ": 3822,
      "å§ĭçŁ¥": 3823,
      "é£İéĽª": 3824,
      "æľĪçħ§": 3825,
      "äºĭä¸ļ": 3826,
      "é¾ĻèĽĩ": 3827,
      "ç¬ĳè¯Ń": 3828,
      "å¿Į": 3829,
      "èĮ¸": 3830,
      "ä¹Ŀå·ŀ": 3831,
      "åĲŁè¯Ĺ": 3832,
      "å¯¹éħĴ": 3833,
      "æľĿå»·": 3834,
      "å¯Ħè¯Ń": 3835,
      "äºĳçĥŁ": 3836,
      "æŃĮå£°": 3837,
      "äº¬åįİ": 3838,
      "äºĮåįģ": 3839,
      "éį": 3840,
      "å£°åĲį": 3841,
      "æ¼ª": 3842,
      "é£ŀé¸Ł": 3843,
      "ä¹Ŀå¤©": 3844,
      "èĽ°": 3845,
      "èķĥ": 3846,
      "å¦Ĥè®¸": 3847,
      "ç«¹æŀĹ": 3848,
      "ä¹Ķæľ¨": 3849,
      "éļĪ": 3850,
      "æ±īå®¶": 3851,
      "åªĴ": 3852,
      "è®´": 3853,
      "èĿĩ": 3854,
      "æľªå¤®": 3855,
      "å¤Ķ": 3856,
      "èĲ§çĳŁ": 3857,
      "è¸ªè¿¹": 3858,
      "äººä¸ĸ": 3859,
      "ä¼Ł": 3860,
      "å¸Ļ": 3861,
      "å®īèĥ½": 3862,
      "æ¢ĵ": 3863,
      "åĮĢ": 3864,
      "æŁĦ": 3865,
      "è±º": 3866,
      "é¹ĵ": 3867,
      "æ¸ħå¤ľ": 3868,
      "éĥģéĥģ": 3869,
      "ç¼©": 3870,
      "èŁ¹": 3871,
      "å®ª": 3872,
      "æ»Ł": 3873,
      "æ¦Ń": 3874,
      "äºı": 3875,
      "æģĥ": 3876,
      "æ½ĺ": 3877,
      "å±±äºº": 3878,
      "å°¼": 3879,
      "é£ĺé£ĺ": 3880,
      "æ¬¡ç¬¬": 3881,
      "ä¸ĺå£ĳ": 3882,
      "æľªè®¸": 3883,
      "éª¤": 3884,
      "ä¸¤é¬ĵ": 3885,
      "ç»Ħ": 3886,
      "ä¸Ģå°Ĭ": 3887,
      "çĽ¸ä¸İ": 3888,
      "ç¼ģ": 3889,
      "éĴ¦": 3890,
      "ä¸Ńå¤ľ": 3891,
      "éĴŁå£°": 3892,
      "åĬª": 3893,
      "åı¤å¯º": 3894,
      "ä»Ĭå¤ľ": 3895,
      "éľĦæ±ī": 3896,
      "æĿıèĬ±": 3897,
      "ä¸įåĬ¨": 3898,
      "çŃĴ": 3899,
      "æĬ¹": 3900,
      "éĨĩ": 3901,
      "æĵİ": 3902,
      "å¤©æĦı": 3903,
      "èİ«éĹ®": 3904,
      "åĲĽæģ©": 3905,
      "å·²æĪĲ": 3906,
      "èĶ¡": 3907,
      "éĢłçī©": 3908,
      "å±±åĥ§": 3909,
      "åħ¥æ¢¦": 3910,
      "å´İ": 3911,
      "åĻª": 3912,
      "éĽ¨å£°": 3913,
      "æ¯Ĥ": 3914,
      "åĲĳäºº": 3915,
      "åĽĽæĸ¹": 3916,
      "ä»ĸä¹¡": 3917,
      "ç§©": 3918,
      "å®¶å®¶": 3919,
      "å²ģåįİ": 3920,
      "è°£": 3921,
      "å¤©è¾¹": 3922,
      "ä¸įä¸İ": 3923,
      "å±±åīį": 3924,
      "ç¥Ī": 3925,
      "è¿°": 3926,
      "éķ¿æŃĮ": 3927,
      "æĮº": 3928,
      "åĴ¨": 3929,
      "é¸±": 3930,
      "æ¥¼éĺģ": 3931,
      "å²Ĥæľī": 3932,
      "æģĻ": 3933,
      "æ¹ĸæµ·": 3934,
      "åĩīé£İ": 3935,
      "å¸ĸ": 3936,
      "åĬŁæĪĲ": 3937,
      "èĢģåŃĲ": 3938,
      "èĪĦ": 3939,
      "çĲµ": 3940,
      "éºĴ": 3941,
      "éģ¥çŁ¥": 3942,
      "éĩįéĩį": 3943,
      "é¹ī": 3944,
      "æķŀ": 3945,
      "åĽĽå£ģ": 3946,
      "åįİåıĳ": 3947,
      "å½ķ": 3948,
      "èĬ±æŀĿ": 3949,
      "åŀĦ": 3950,
      "ä¸¤å²¸": 3951,
      "åĨĮ": 3952,
      "æ¯ģ": 3953,
      "åŁİä¸Ń": 3954,
      "åĽĽåįģ": 3955,
      "æ¥¸": 3956,
      "éĩİæ°´": 3957,
      "æ±Łè¾¹": 3958,
      "å·²æĹł": 3959,
      "åı¸é©¬": 3960,
      "åĲĦæľī": 3961,
      "é¹¦é¹ī": 3962,
      "è´Ŀ": 3963,
      "è®¨": 3964,
      "èĥ¶": 3965,
      "èİİ": 3966,
      "éĤ±": 3967,
      "è¿ľè¿ĳ": 3968,
      "çĽ¸å¿Ĩ": 3969,
      "çĲµçĲ¶": 3970,
      "å°ģä¾¯": 3971,
      "å°¹": 3972,
      "èĤ²": 3973,
      "é£İéľ²": 3974,
      "å¼¯": 3975,
      "èĬ±åīį": 3976,
      "çº¯": 3977,
      "ä¸įæĽ¾": 3978,
      "èī¾": 3979,
      "é¥°": 3980,
      "æ¢¦åĽŀ": 3981,
      "é¥·": 3982,
      "å½Ĵå¿ĥ": 3983,
      "éĩĳéĻµ": 3984,
      "é£ŀèĬ±": 3985,
      "æīĢä»¥": 3986,
      "æķ¦": 3987,
      "ç§ĭéĽ¨": 3988,
      "åĲĽçľĭ": 3989,
      "éºĴéºŁ": 3990,
      "çĥŁæ°´": 3991,
      "å¤įä½ķ": 3992,
      "çłĶ": 3993,
      "æĦ¿è¨Ģ": 3994,
      "æį£": 3995,
      "è¿¢éĢĴ": 3996,
      "å±ĳ": 3997,
      "ä»Ĭå·²": 3998,
      "ä¸ĸè·¯": 3999,
      "æĴ¼": 4000,
      "å¤©åħ¬": 4001,
      "æ¶©": 4002,
      "ä¸įæĺĵ": 4003,
      "ä¸Ńåħ´": 4004,
      "å½ĵæĹ¥": 4005,
      "å´©": 4006,
      "çĴĥ": 4007,
      "èĬ±é£ŀ": 4008,
      "æľªåºĶ": 4009,
      "æĹ©æĻļ": 4010,
      "åĬªåĬĽ": 4011,
      "åĮĿ": 4012,
      "åįĬå¤ľ": 4013,
      "çĦ°": 4014,
      "ä¸īçĻ¾": 4015,
      "å²ģå²ģ": 4016,
      "å¦Ĥäºĳ": 4017,
      "çľĩ": 4018,
      "æ·ĭ": 4019,
      "ä¸ĥåįģ": 4020,
      "æŃ§": 4021,
      "å¹½å±ħ": 4022,
      "æĹĦ": 4023,
      "åħ«æľĪ": 4024,
      "èĤłæĸŃ": 4025,
      "èĮµ": 4026,
      "å¹¼": 4027,
      "éĢĭ": 4028,
      "çª¦": 4029,
      "æ½ĩæ´Ĵ": 4030,
      "æĸ©": 4031,
      "èĸľèĲĿ": 4032,
      "å¾®é£İ": 4033,
      "ä¸´æ°´": 4034,
      "å¿ĺæľº": 4035,
      "æ©¹": 4036,
      "èĳ£": 4037,
      "å¼ı": 4038,
      "æĭħ": 4039,
      "ä¸Ĭä¸ĭ": 4040,
      "æµģåħī": 4041,
      "æĹ¶æľī": 4042,
      "çģ¾": 4043,
      "çº¨": 4044,
      "å±±éĺ´": 4045,
      "ç¾Į": 4046,
      "çĭ±": 4047,
      "äº¤æĥħ": 4048,
      "ç¬ĻæŃĮ": 4049,
      "å©Ĩå¨ĳ": 4050,
      "ç¨ł": 4051,
      "æĹ¥éķ¿": 4052,
      "éľľéĽª": 4053,
      "æľĢæĺ¯": 4054,
      "çģ¿": 4055,
      "åĭ¾": 4056,
      "ä¸įä¿¡": 4057,
      "éĹ¹": 4058,
      "äºĳå¤ĸ": 4059,
      "æľīéħĴ": 4060,
      "æľīæĦı": 4061,
      "ä¸įæĸŃ": 4062,
      "é£İçī©": 4063,
      "èĬ±åıĳ": 4064,
      "æŃ»çĶŁ": 4065,
      "å½¦": 4066,
      "èĵ¼": 4067,
      "ä¸ĸæĥħ": 4068,
      "ç¯Ļ": 4069,
      "æµ·åĨħ": 4070,
      "éħį": 4071,
      "è¤°": 4072,
      "èĬ¸": 4073,
      "æ°²": 4074,
      "æĹłå®ļ": 4075,
      "éĥ¢": 4076,
      "çī©å¤ĸ": 4077,
      "æĹŃ": 4078,
      "éŁ¬": 4079,
      "åĲ¼": 4080,
      "åĪ¤": 4081,
      "å¤©åı°": 4082,
      "çĽ¸è¿ĩ": 4083,
      "æµ·éĹ¨": 4084,
      "åĸ·": 4085,
      "æ²ĥ": 4086,
      "åºļ": 4087,
      "å¤§æ±Ł": 4088,
      "éºĭ": 4089,
      "åĺ²": 4090,
      "è¯ķéĹ®": 4091,
      "äºĽ": 4092,
      "å¤©ä¸Ģ": 4093,
      "çŁ¥æĺ¯": 4094,
      "ä¸ľæµģ": 4095,
      "éļıå¤Ħ": 4096,
      "å±ħçĦ¶": 4097,
      "å¯¥å¯¥": 4098,
      "é¢Ĭ": 4099,
      "åįĹå·ŀ": 4100,
      "èĢ¿èĢ¿": 4101,
      "ç»ħ": 4102,
      "æĪª": 4103,
      "éĩİèĢģ": 4104,
      "è¤Ĵ": 4105,
      "å°ĸ": 4106,
      "ç¢§çİī": 4107,
      "æĺ¥å¯Ĵ": 4108,
      "åºŃåīį": 4109,
      "æĿµ": 4110,
      "è°Ļ": 4111,
      "æ¡¨": 4112,
      "æ¥¼èĪ¹": 4113,
      "åĨ°éľľ": 4114,
      "åįĥå°º": 4115,
      "ä¸¤ä¸ī": 4116,
      "éª¨èĤī": 4117,
      "çŀ°": 4118,
      "ä¸¹çłĤ": 4119,
      "éĺ´éĺ´": 4120,
      "æĥ®": 4121,
      "ä¸ĩå®¶": 4122,
      "é¾ĻéĹ¨": 4123,
      "é«ĺåı°": 4124,
      "éĢģå®¢": 4125,
      "éķ¿æĿ¾": 4126,
      "é¢Ŀ": 4127,
      "è´£": 4128,
      "å¼ŁåħĦ": 4129,
      "éĶ¦ç»£": 4130,
      "æ¸Ķæ¨µ": 4131,
      "ä¸Ģè§ģ": 4132,
      "äºĳéľŀ": 4133,
      "æľ´": 4134,
      "æļ´": 4135,
      "ç®¸": 4136,
      "æħ§": 4137,
      "çĽ¸éļı": 4138,
      "æĹłçĶ±": 4139,
      "æĺ¥å½Ĵ": 4140,
      "æĶ²": 4141,
      "ä¸ĸä¸Ĭ": 4142,
      "èĳĹä¹¦": 4143,
      "ä»ĸæĹ¶": 4144,
      "å©ī": 4145,
      "æĹ¥å¤ķ": 4146,
      "æĿĸèĹľ": 4147,
      "ä¸ĭæľī": 4148,
      "æµ©æµ©": 4149,
      "å±±é«ĺ": 4150,
      "è¥¿åĮĹ": 4151,
      "çĤ¯": 4152,
      "å±±çģµ": 4153,
      "çĻ½éľ²": 4154,
      "äºĳæ°´": 4155,
      "éķľä¸Ń": 4156,
      "ä¸ĢåĪ«": 4157,
      "æĸ¤": 4158,
      "èĢ¶": 4159,
      "ç¢£": 4160,
      "ä¸Ģå®¶": 4161,
      "èľľ": 4162,
      "å¹³åİŁ": 4163,
      "é¬¼ç¥ŀ": 4164,
      "åºŀ": 4165,
      "æİł": 4166,
      "æĹłè¯Ń": 4167,
      "åħ´äº¡": 4168,
      "åĩĨ": 4169,
      "ä»¥ä¸º": 4170,
      "äºļ": 4171,
      "ä»Ĭå®µ": 4172,
      "éĿ©": 4173,
      "ç²Ĵ": 4174,
      "æĹ¥å·²": 4175,
      "çĽĪçĽĪ": 4176,
      "è°ģæĺ¯": 4177,
      "æŀ¢": 4178,
      "éĻĢ": 4179,
      "æ·©": 4180,
      "è¿Łè¿Ł": 4181,
      "è¥¿åįĹ": 4182,
      "æĤ²æŃĮ": 4183,
      "æ±łä¸Ĭ": 4184,
      "çĸĳæĺ¯": 4185,
      "è¯¸åħ¬": 4186,
      "å±±äºĳ": 4187,
      "æ¼ĵ": 4188,
      "ä¸Ģå¤ķ": 4189,
      "æĹłå°ĺ": 4190,
      "æ³īçŁ³": 4191,
      "èĢģæĿ¥": 4192,
      "æĤŃ": 4193,
      "åĢº": 4194,
      "å¤©é«ĺ": 4195,
      "ç©ºèĩª": 4196,
      "æ¹²": 4197,
      "çŃĭ": 4198,
      "æŃ£æĺ¯": 4199,
      "ç¨ļåŃĲ": 4200,
      "åķ¼é¸Ł": 4201,
      "åµ¯": 4202,
      "ä»ĩ": 4203,
      "ç©ºé¦Ģ": 4204,
      "å®¢è·¯": 4205,
      "è®°å¾Ĺ": 4206,
      "æ±¾": 4207,
      "åįĬçĶŁ": 4208,
      "åŃº": 4209,
      "æĥ¹": 4210,
      "èĭķ": 4211,
      "æĽľ": 4212,
      "åĿĬ": 4213,
      "æ²§æºŁ": 4214,
      "æĻļé£İ": 4215,
      "çģ¯åīį": 4216,
      "éľ°": 4217,
      "çīĽç¾Ĭ": 4218,
      "ç»Īä¸į": 4219,
      "æľĪèĲ½": 4220,
      "å¾ĹæĦı": 4221,
      "æ¡ĳéº»": 4222,
      "ä¸įæĥľ": 4223,
      "å¤ķçħ§": 4224,
      "ç¬ı": 4225,
      "å¾®èĮ«": 4226,
      "ä¸Ģæ¨½": 4227,
      "åĶ¾": 4228,
      "ç»Ļ": 4229,
      "æ»¡çĽ®": 4230,
      "åĽĽéĿ¢": 4231,
      "èį»": 4232,
      "ä¸ľç¯±": 4233,
      "å¹³å®ī": 4234,
      "éĽªæ»¡": 4235,
      "æ³łæ³ł": 4236,
      "ä¸Ģå®ĺ": 4237,
      "æĻķ": 4238,
      "æĪĳçĶŁ": 4239,
      "æ´½": 4240,
      "ç¿°å¢¨": 4241,
      "æĺ¥å±±": 4242,
      "é¸¢": 4243,
      "ä¸ĬæŀĹ": 4244,
      "é©·": 4245,
      "æ³Ĺ": 4246,
      "åĿĹ": 4247,
      "æĹłæģĻ": 4248,
      "æ½ºæ¹²": 4249,
      "åĶĩ": 4250,
      "æĺ¥æĹ¥": 4251,
      "ä¾ĭ": 4252,
      "æ¿ĳ": 4253,
      "æ¹ĸæ°´": 4254,
      "æĺŁæĸĹ": 4255,
      "æ¸ħåĩī": 4256,
      "é¢¦": 4257,
      "èĢģå¤§": 4258,
      "æĿī": 4259,
      "æ¢¦å¯Ĳ": 4260,
      "çĪª": 4261,
      "çĤ¼": 4262,
      "è¸°": 4263,
      "å°¸": 4264,
      "éªİ": 4265,
      "æ±łå¡ĺ": 4266,
      "é¢ģ": 4267,
      "æº¶": 4268,
      "æŀ£": 4269,
      "æ±Łæ±ī": 4270,
      "é¥µ": 4271,
      "åħīè¾ī": 4272,
      "éĿŀæīĢ": 4273,
      "æĢĢäºº": 4274,
      "ä¸įå®¹": 4275,
      "äºĳæ·±": 4276,
      "èĬ±ä¸ĭ": 4277,
      "è±ļ": 4278,
      "æĹ¥åĩº": 4279,
      "æŃ¦éĻµ": 4280,
      "è¯ĺ": 4281,
      "åįģäºĶ": 4282,
      "æĥ§": 4283,
      "ä¸Ĭå¤©": 4284,
      "ä¸ĢæľĽ": 4285,
      "æ²³å±±": 4286,
      "é¢Ĺ": 4287,
      "çľĭäºĳ": 4288,
      "çĽ¸å¯»": 4289,
      "éļĲéļĲ": 4290,
      "ç¿¡": 4291,
      "æ¬²éĹ®": 4292,
      "åı¤éģĵ": 4293,
      "çªĹåīį": 4294,
      "åµ¯å³¨": 4295,
      "é¦¥": 4296,
      "éªĩ": 4297,
      "äººåİ»": 4298,
      "ä¸ĩåĽ½": 4299,
      "æķ°å£°": 4300,
      "ä½³åı¥": 4301,
      "è¯¸çĶŁ": 4302,
      "çĽ¸çŁ¥": 4303,
      "çĶŁæĦı": 4304,
      "åļ¼": 4305,
      "ä¸įå¿ħ": 4306,
      "é¢ĸ": 4307,
      "åıĪè§ģ": 4308,
      "åĶ¯æľī": 4309,
      "ç¿¡ç¿ł": 4310,
      "æľīéģĹ": 4311,
      "é¸ª": 4312,
      "å®īçŁ¥": 4313,
      "ä½¿èĢħ": 4314,
      "èĩªåľ¨": 4315,
      "èĪ¸": 4316,
      "èĢģåĥ§": 4317,
      "éºĪ": 4318,
      "åĽļ": 4319,
      "å±±æ·±": 4320,
      "åİĵ": 4321,
      "èĮ¨": 4322,
      "åĪ°æŃ¤": 4323,
      "ä¹Ĳäºĭ": 4324,
      "ä¸įå¼Ģ": 4325,
      "æĺ¥äºĭ": 4326,
      "éĽ¨é¦Ģ": 4327,
      "èĩŃ": 4328,
      "éķ¿å¹´": 4329,
      "ç»ıçº¶": 4330,
      "æľĪåįİ": 4331,
      "åı¯æĥľ": 4332,
      "èģª": 4333,
      "å¤©æ°Ķ": 4334,
      "çĻ½é¹¤": 4335,
      "ä¿®ç«¹": 4336,
      "å³Ļ": 4337,
      "çŃĿ": 4338,
      "èĸĦæļ®": 4339,
      "å±±åħī": 4340,
      "æ¸ħé¦Ļ": 4341,
      "äººåľ¨": 4342,
      "å²ĸ": 4343,
      "éªĭ": 4344,
      "å¤§éģĵ": 4345,
      "æľªæĺĵ": 4346,
      "çĥŁäºĳ": 4347,
      "å¹¢": 4348,
      "é«ĺéĺģ": 4349,
      "åįģåĪĨ": 4350,
      "éģµ": 4351,
      "çĳ¶æ±ł": 4352,
      "æ±İ": 4353,
      "éļ¾å¿ĺ": 4354,
      "èİ«æķĻ": 4355,
      "æĹłè®¡": 4356,
      "ç½Ķ": 4357,
      "æ°´ä¸Ń": 4358,
      "æ·®åįĹ": 4359,
      "ä¸įæŃ»": 4360,
      "ç¤¼ä¹Ĳ": 4361,
      "çĥ½çģ«": 4362,
      "èİĵ": 4363,
      "åĽ¾çĶ»": 4364,
      "èĶļ": 4365,
      "é£ķ": 4366,
      "ç«ĸ": 4367,
      "ç©ºæľī": 4368,
      "çªĦ": 4369,
      "åľ£è´¤": 4370,
      "çº¢åı¶": 4371,
      "éĿĴæĿ¾": 4372,
      "ä¸ľæĸ¹": 4373,
      "çľ¼çľĭ": 4374,
      "ä¸ºéĹ®": 4375,
      "çķħ": 4376,
      "çĶ°åĽŃ": 4377,
      "å·¦åı³": 4378,
      "éįĬ": 4379,
      "åıªæģĲ": 4380,
      "æ¬¤": 4381,
      "ä¸İä¸ĸ": 4382,
      "è¢ľ": 4383,
      "çľŁæĪĲ": 4384,
      "è½¨": 4385,
      "éĻĽ": 4386,
      "é¹ľ": 4387,
      "æ¢¨èĬ±": 4388,
      "éĿĴçģ¯": 4389,
      "æĺİæĹ¶": 4390,
      "çĶ¸": 4391,
      "åĲ¾åºĲ": 4392,
      "é¾Ľ": 4393,
      "æŁ³èī²": 4394,
      "èĬ¦èĬ±": 4395,
      "ç©ºè°·": 4396,
      "æ»ļ": 4397,
      "åı¯ä»¥": 4398,
      "ç¨İ": 4399,
      "å³°å¤´": 4400,
      "å®³": 4401,
      "é¹§": 4402,
      "æľ¨åı¶": 4403,
      "è¹Ī": 4404,
      "ç§ĥ": 4405,
      "çĻ¾å²ģ": 4406,
      "åĮĹæľĽ": 4407,
      "åı°ä¸Ĭ": 4408,
      "æĹ¶æĿ¥": 4409,
      "å¨Łå¨Ł": 4410,
      "çĪ°": 4411,
      "å²ģæļ®": 4412,
      "åıĮé¬ĵ": 4413,
      "ç¿ĽçĦ¶": 4414,
      "åİ»åİ»": 4415,
      "æİ¬": 4416,
      "æ¨±": 4417,
      "å¹½æłĸ": 4418,
      "æľ±é¢ľ": 4419,
      "ç§ª": 4420,
      "éĻĪè¿¹": 4421,
      "äºĳå¼Ģ": 4422,
      "åĿİ": 4423,
      "æ°´ä¸Ĭ": 4424,
      "çĤ¬": 4425,
      "å±ħå£«": 4426,
      "ç§Ł": 4427,
      "äºĳé£ŀ": 4428,
      "æĻ¤": 4429,
      "åŁİå¤´": 4430,
      "ä¸´æµģ": 4431,
      "æľĿæľĿ": 4432,
      "çĲ¢": 4433,
      "æĪĳè¡Į": 4434,
      "å¤§å¤«": 4435,
      "ç¥ŀå·ŀ": 4436,
      "è¹Ļ": 4437,
      "ä¸İåŃĲ": 4438,
      "èĬ±éĹ´": 4439,
      "ä¸Ĭæĸ¹": 4440,
      "ç¢Į": 4441,
      "çĤĻ": 4442,
      "äºĶåįģ": 4443,
      "æľªäºĨ": 4444,
      "æı¡æīĭ": 4445,
      "èµĵ": 4446,
      "å¤©å¿ĥ": 4447,
      "æļ®éĽ¨": 4448,
      "åĦ¿åŃĻ": 4449,
      "æī¿æģ©": 4450,
      "é£İéĽ·": 4451,
      "äºĮåįģå¹´": 4452,
      "ç´«æ°Ķ": 4453,
      "èĴ¹": 4454,
      "èķ¨": 4455,
      "ç³Ĭ": 4456,
      "æ²īæ²ī": 4457,
      "ç¼ª": 4458,
      "æ¥¼ä¸Ĭ": 4459,
      "åįĩå¹³": 4460,
      "é¨": 4461,
      "åłµ": 4462,
      "ç§ĭèįī": 4463,
      "æ¹Ħ": 4464,
      "ä»Ļå®¶": 4465,
      "ç¯®": 4466,
      "çº¬": 4467,
      "æ¢Ĺ": 4468,
      "ç§ĭæ°Ķ": 4469,
      "ä¸ĩå±±": 4470,
      "åķ¾": 4471,
      "å¤ªåı²": 4472,
      "çķĻå¾Ĺ": 4473,
      "çĻ¾èĬ±": 4474,
      "æĻļæĿ¥": 4475,
      "éľıéľı": 4476,
      "åīĸ": 4477,
      "èľĥ": 4478,
      "åİ»ä¸į": 4479,
      "è°ģéģĵ": 4480,
      "æİĸ": 4481,
      "å¤ªæģ¯": 4482,
      "åĿ¦": 4483,
      "æ®ĭæľĪ": 4484,
      "åįĹé£İ": 4485,
      "æ²³æ±ī": 4486,
      "è®ºæĸĩ": 4487,
      "é«ĺæŃĮ": 4488,
      "èĸ°é£İ": 4489,
      "å²±": 4490,
      "è¿ľéģĵ": 4491,
      "èľĹ": 4492,
      "åĺĺ": 4493,
      "èĢģæłĳ": 4494,
      "ä¹¦æĿ¥": 4495,
      "éªĿ": 4496,
      "ä¸°å¹´": 4497,
      "èĩªæĺĶ": 4498,
      "å©µ": 4499,
      "é¹§é¸ª": 4500,
      "¡èĲ": 4501,
      "éģĳ": 4502,
      "åģ¿": 4503,
      "æĿľéĻµ": 4504,
      "æĸ¹çŁ¥": 4505,
      "å£®å£«": 4506,
      "çĳ¶åı°": 4507,
      "çĮ¿é¹¤": 4508,
      "ä¸Ģä»£": 4509,
      "ç¬ĳæĪĳ": 4510,
      "èł¡": 4511,
      "æ·ħ": 4512,
      "æĬĢ": 4513,
      "èĢģç¿ģ": 4514,
      "æ¡§": 4515,
      "æľĽä¸Ń": 4516,
      "äººæĦı": 4517,
      "å®¢åŃĲ": 4518,
      "å»Ľ": 4519,
      "èĭĴ": 4520,
      "å°ĬéħĴ": 4521,
      "æıŃ": 4522,
      "æī°æī°": 4523,
      "ä¸ĩåį·": 4524,
      "åłĤåīį": 4525,
      "èŀŃ": 4526,
      "ä¹Ļ": 4527,
      "ä¹ĭåŃĲ": 4528,
      "èħ´": 4529,
      "åĲ¾çĶŁ": 4530,
      "æ²½éħĴ": 4531,
      "å¯¼": 4532,
      "èķ´": 4533,
      "éĢ¶": 4534,
      "åįģæľĪ": 4535,
      "è°Ł": 4536,
      "åĲĮä¸Ģ": 4537,
      "æºªæµģ": 4538,
      "åĩŃè°ģ": 4539,
      "éľĨ": 4540,
      "å®īåı¯": 4541,
      "èįīèįī": 4542,
      "çıĤ": 4543,
      "åįĥå²ģ": 4544,
      "å¤©éĹ¨": 4545,
      "å¼ĺ": 4546,
      "å¤ªåı¤": 4547,
      "å®ģçŁ¥": 4548,
      "é©±è½¦": 4549,
      "å§ļ": 4550,
      "åıĺåĮĸ": 4551,
      "èĬ°": 4552,
      "çĽį": 4553,
      "è°¬": 4554,
      "åĿĲçľĭ": 4555,
      "æĿŀ": 4556,
      "èĴ¹èĳŃ": 4557,
      "åłĤä¸Ĭ": 4558,
      "èĵ¬èĴ¿": 4559,
      "é´": 4560,
      "æ¸¥": 4561,
      "æĹłè¾¹": 4562,
      "ç»¿æĿ¨": 4563,
      "èĻİè±¹": 4564,
      "ç¼Ĩ": 4565,
      "åŁİå¸Ĥ": 4566,
      "åįĥä»ŀ": 4567,
      "éĩľ": 4568,
      "äººæĿ¥": 4569,
      "æĪĳçĭ¬": 4570,
      "éĽ¨ä¸Ń": 4571,
      "ç²¥": 4572,
      "åĪĥ": 4573,
      "å±±åŁİ": 4574,
      "éķĮ": 4575,
      "éĿĴè¡«": 4576,
      "çĳ©": 4577,
      "åįı": 4578,
      "åĲİæĿ¥": 4579,
      "æ³¼": 4580,
      "çī¡ä¸¹": 4581,
      "å®ĥ": 4582,
      "ç©Ĺ": 4583,
      "çĽ¸éĢģ": 4584,
      "åıĮé£ŀ": 4585,
      "å¿½æĥĬ": 4586,
      "è¸ŀ": 4587,
      "çªģåħĢ": 4588,
      "æĬŁ": 4589,
      "åĹ¤": 4590,
      "ç»Ł": 4591,
      "æĴ©": 4592,
      "åı¨": 4593,
      "ç»¿æłĳ": 4594,
      "æłĸè¿Ł": 4595,
      "å´İå²ĸ": 4596,
      "çĥŁæłĳ": 4597,
      "ä¹ĿæĹ¥": 4598,
      "åį´å¿Ĩ": 4599,
      "æĥŃæĦ§": 4600,
      "é¡»çŁ¥": 4601,
      "çļİçļİ": 4602,
      "çį": 4603,
      "æľīç¥ŀ": 4604,
      "å¼ĢéĹ¨": 4605,
      "éĺ´éĺ³": 4606,
      "æĮ²": 4607,
      "éĴĵé±¼": 4608,
      "å¸ħ": 4609,
      "çĻ½æĺ¼": 4610,
      "éĤ¹": 4611,
      "åĥļ": 4612,
      "æĹłè·¯": 4613,
      "æľĪåĩº": 4614,
      "å¹³åľ°": 4615,
      "æµĶ": 4616,
      "æŃ¤è¡Į": 4617,
      "å²Ĥæĺ¯": 4618,
      "èµĭè¯Ĺ": 4619,
      "ä¸īæĺ¥": 4620,
      "è£´": 4621,
      "ç»Ŀé¡¶": 4622,
      "ç©ºä¸Ń": 4623,
      "èİ«éģ£": 4624,
      "æĺĶäºº": 4625,
      "é£ĺçĦ¶": 4626,
      "çĪ½æ°Ķ": 4627,
      "èİĵèĭĶ": 4628,
      "å¹Ķ": 4629,
      "é¢į": 4630,
      "åŃ¤å±±": 4631,
      "åıªåľ¨": 4632,
      "æľªè§ī": 4633,
      "ä½ķæĦı": 4634,
      "æľĿéĺ³": 4635,
      "çķĻè¿ŀ": 4636,
      "ç»¿æ°´": 4637,
      "æĹłåĬĽ": 4638,
      "è¾į": 4639,
      "åįĥæłĳ": 4640,
      "çīĪ": 4641,
      "éĺ¶åīį": 4642,
      "åĳµ": 4643,
      "é»Ħé¹Ħ": 4644,
      "æĺĶæĹ¥": 4645,
      "åĶ³": 4646,
      "æĤ¬çŁ¥": 4647,
      "ä¹ĺé£İ": 4648,
      "éķ¿åŁİ": 4649,
      "éĿĴçľ¼": 4650,
      "å¤©é¦Ļ": 4651,
      "å®¢å¿ĥ": 4652,
      "åĴĮæ°Ķ": 4653,
      "æ£®æ£®": 4654,
      "éķ¿é£İ": 4655,
      "éĴ¿": 4656,
      "é¥¼": 4657,
      "ç®±": 4658,
      "äººè¯Ń": 4659,
      "æ°¤": 4660,
      "åįĹæµ¦": 4661,
      "å¥½äºĭ": 4662,
      "é¼Ļ": 4663,
      "è¿ŀå¤©": 4664,
      "æľ±éĹ¨": 4665,
      "å¤ªçĻ½": 4666,
      "èĿ´": 4667,
      "äº¦èĩª": 4668,
      "åĮĹçªĹ": 4669,
      "çĻ»å±±": 4670,
      "æ²Īæ²Ī": 4671,
      "æĵĺ": 4672,
      "æ¸ħæµģ": 4673,
      "å¯Ĵäºĳ": 4674,
      "æ·±å±±": 4675,
      "çľ¼åºķ": 4676,
      "ä¸Ńå¹´": 4677,
      "æľªæĽ¾": 4678,
      "æľªä¼ĳ": 4679,
      "æİĢ": 4680,
      "åĮł": 4681,
      "é¸Łåķ¼": 4682,
      "å´Ļ": 4683,
      "äººçŁ¥": 4684,
      "æĳ©æĮ²": 4685,
      "èĬ¹": 4686,
      "è°ģè¨Ģ": 4687,
      "èİ«åĲĳ": 4688,
      "ç»Īåı¤": 4689,
      "åĩĦåĩĦ": 4690,
      "ä¸īç§ĭ": 4691,
      "çĬ¹èĥ½": 4692,
      "é«ĺæłĳ": 4693,
      "åºĶæĺ¯": 4694,
      "èĿ´èĿ¶": 4695,
      "å©µå¨Ł": 4696,
      "æ¹ĸåħī": 4697,
      "éĶµ": 4698,
      "å¦Ĥçİī": 4699,
      "äº¦ä¸į": 4700,
      "å±ĪæĮĩ": 4701,
      "å½Ĵæ¢¦": 4702,
      "çĵ£": 4703,
      "å½·ä½Ľ": 4704,
      "ä¾ª": 4705,
      "éªĮ": 4706,
      "åŀ¢": 4707,
      "æĻ¯çī©": 4708,
      "é£İé«ĺ": 4709,
      "å®¢æĦģ": 4710,
      "æŀĿå¤´": 4711,
      "åĩŃæłı": 4712,
      "éĻĮä¸Ĭ": 4713,
      "äºĮä¸ī": 4714,
      "æªł": 4715,
      "çĶ°å®¶": 4716,
      "ä½Ĩè§ģ": 4717,
      "è®¼": 4718,
      "çĬ¹æĺ¯": 4719,
      "è¡į": 4720,
      "èĻļç©º": 4721,
      "æĤ²é£İ": 4722,
      "çĻ½é¸Ł": 4723,
      "çĭ¬åĢļ": 4724,
      "éģ¥æľĽ": 4725,
      "æĶ¶æĭ¾": 4726,
      "äººä¸į": 4727,
      "å·ĺ": 4728,
      "æ±Łå¤©": 4729,
      "äº¦æĹł": 4730,
      "çĭ¬èĩª": 4731,
      "èģĬèĩª": 4732,
      "ç§ĭéľľ": 4733,
      "å¢ħ": 4734,
      "ç©¶": 4735,
      "æģ¤": 4736,
      "æľªåħ¨": 4737,
      "èĮĨ": 4738,
      "çĮĹ": 4739,
      "æĭĵ": 4740,
      "è¡Įå½¹": 4741,
      "æ°¤æ°²": 4742,
      "é¶": 4743,
      "äº¿": 4744,
      "è¿¸": 4745,
      "æĽ·": 4746,
      "çĿ¨": 4747,
      "èģĬå¤į": 4748,
      "å®¾å®¢": 4749,
      "æĻŀ": 4750,
      "å¤ļæĹ¶": 4751,
      "ç½į": 4752,
      "èİºèĬ±": 4753,
      "é»Ķ": 4754,
      "ä¹ĥçŁ¥": 4755,
      "åºĬå¤´": 4756,
      "æ¸ħæ³ī": 4757,
      "æİī": 4758,
      "èĭįæ¢§": 4759,
      "éĽł": 4760,
      "çķĻå®¢": 4761,
      "åĨµæĺ¯": 4762,
      "å¼¦æŃĮ": 4763,
      "äºĳçĶŁ": 4764,
      "æµģå¹´": 4765,
      "é¥¯": 4766,
      "èķ¤": 4767,
      "è¾ľ": 4768,
      "ä¸ĸçķĮ": 4769,
      "åį´ç¬ĳ": 4770,
      "ä¸Ńå®µ": 4771,
      "ç§§": 4772,
      "é«ĵ": 4773,
      "çİīå£¶": 4774,
      "æĸ°æľĪ": 4775,
      "èŃ¬": 4776,
      "èĬŃ": 4777,
      "èĻ¾": 4778,
      "ä¸ĩæĪ·": 4779,
      "èĻļåĲį": 4780,
      "çķ¿": 4781,
      "è¢ģ": 4782,
      "é¢ĳå¹´": 4783,
      "æĬĳ": 4784,
      "ä¸īçĶŁ": 4785,
      "éķ¿æ²Ļ": 4786,
      "å±¹": 4787,
      "éŃģ": 4788,
      "å±±ä¸Ĭ": 4789,
      "ç¾½ç¿¼": 4790,
      "ä¿Ń": 4791,
      "çĦķ": 4792,
      "æĺĨå´Ļ": 4793,
      "æ¶Ł": 4794,
      "è°ģè°ĵ": 4795,
      "é¬£": 4796,
      "éĤ£èĥ½": 4797,
      "èĲ¸": 4798,
      "éķ¿åĲŁ": 4799,
      "èº«åľ¨": 4800,
      "ä½³èĬĤ": 4801,
      "æ»Ķæ»Ķ": 4802,
      "æĸ«": 4803,
      "æĭĸ": 4804,
      "åĩºåħ¥": 4805,
      "é¥¿": 4806,
      "è¥¿ä¸ľ": 4807,
      "é»Ħäºĳ": 4808,
      "çĥ¬": 4809,
      "è¡¡éĹ¨": 4810,
      "å®Ľè½¬": 4811,
      "æĹĴ": 4812,
      "é£İæ¸ħ": 4813,
      "è¯ĹéħĴ": 4814,
      "åĲ¾å®¶": 4815,
      "ç¦¾é»į": 4816,
      "éļĺ": 4817,
      "çīį": 4818,
      "æºªå¤´": 4819,
      "ç»ıèĲ¥": 4820,
      "å¿½è§ģ": 4821,
      "æĸĹéħĴ": 4822,
      "è°ªä»Ļ": 4823,
      "ä¸ŀçĽ¸": 4824,
      "æĺİä¸»": 4825,
      "éĩĳéĹ¨": 4826,
      "éĥ½éĹ¨": 4827,
      "æµĬéħĴ": 4828,
      "éĢ¶è¿¤": 4829,
      "æ³īå£°": 4830,
      "é¹Ĥ": 4831,
      "é²į": 4832,
      "å¥Ķèµ°": 4833,
      "ä¸Ģæĺ¥": 4834,
      "æĪ¢": 4835,
      "æłĬ": 4836,
      "æģ¸": 4837,
      "åłŀ": 4838,
      "è°ģå°Ĩ": 4839,
      "èµ¢å¾Ĺ": 4840,
      "èĩªå¾Ĺ": 4841,
      "èĻĶ": 4842,
      "ç¼Ŀ": 4843,
      "éĴº": 4844,
      "åĩłè®¸": 4845,
      "çĸıéĽ¨": 4846,
      "é¡¾æĪĳ": 4847,
      "çĻ¾æĪĺ": 4848,
      "éħ¹": 4849,
      "é«ĺå£«": 4850,
      "äºĶé©¬": 4851,
      "æ³ĵ": 4852,
      "è¿ĳæĿ¥": 4853,
      "æĬ¥åĽ½": 4854,
      "éļ¾å¾Ĺ": 4855,
      "åĨłçĽĸ": 4856,
      "éļĭ": 4857,
      "åĵĹ": 4858,
      "æ¥¼åīį": 4859,
      "æ¥¼å¤´": 4860,
      "åĥ®": 4861,
      "åĽ¾ä¹¦": 4862,
      "èİ«è¨Ģ": 4863,
      "ä¸Ģå¤©": 4864,
      "æ²§æ³¢": 4865,
      "å¾ĻåĢļ": 4866,
      "å³£": 4867,
      "ä¸įåĩº": 4868,
      "å¦Ĥæľī": 4869,
      "æµ·å¤©": 4870,
      "çĲ´ä¹¦": 4871,
      "æ¸ĶèĪŁ": 4872,
      "ä½ķçī©": 4873,
      "å¦Ĥæ¢¦": 4874,
      "æĿ¾ç«¹": 4875,
      "æĹłåĽł": 4876,
      "éģĹè¿¹": 4877,
      "é«ĺç§ĭ": 4878,
      "é«ĺæĥħ": 4879,
      "é£ŀé¸¿": 4880,
      "æĦģç»Ŀ": 4881,
      "æľĶé£İ": 4882,
      "æľªèĤ¯": 4883,
      "æ²§æ¡ĳ": 4884,
      "èĲĮ": 4885,
      "éĿĴåĨ¥": 4886,
      "é£ŀåİ»": 4887,
      "äº¦åı¯": 4888,
      "ä¸¹å¿ĥ": 4889,
      "ä¸įæĶ¹": 4890,
      "é«ĺå±±": 4891,
      "è°ģäºĳ": 4892,
      "éĹŃæĪ·": 4893,
      "æĥĺ": 4894,
      "æĹ¥ä»¥": 4895,
      "æİ£": 4896,
      "ä¸Ģèĩª": 4897,
      "æ³®": 4898,
      "æĤī": 4899,
      "éĨ´": 4900,
      "è¹°": 4901,
      "æ¨½åīį": 4902,
      "è¯§": 4903,
      "æķķ": 4904,
      "è¯¸ä¾¯": 4905,
      "èįĨæ£ĺ": 4906,
      "èįīæłĳ": 4907,
      "æĿ¨èĬ±": 4908,
      "ä½ķèĥ½": 4909,
      "èĢģçľ¼": 4910,
      "è°·åı£": 4911,
      "ä¸Ńäºº": 4912,
      "æ¢¦åĪ°": 4913,
      "ä¸įçĭ¬": 4914,
      "è´¢": 4915,
      "çĻ¾ä¸ĩ": 4916,
      "åĮĹæµ·": 4917,
      "å¼Ĥä¹¡": 4918,
      "æ²¾è¡£": 4919,
      "æĹłä¸º": 4920,
      "æ²¥": 4921,
      "åºĶçŁ¥": 4922,
      "åķŃ": 4923,
      "ä¹Ī": 4924,
      "éĹ·": 4925,
      "æľīæŃ¤": 4926,
      "åĲĮæ¸¸": 4927,
      "æ®Ĭæľª": 4928,
      "é¸¥é¹Ń": 4929,
      "é£ı": 4930,
      "éģ¨": 4931,
      "é¹¢": 4932,
      "èįĴåĩī": 4933,
      "éĹª": 4934,
      "æĺ¥æĦı": 4935,
      "äº¦çŁ¥": 4936,
      "å¤©å¼Ģ": 4937,
      "çĽ¸è¯Ĩ": 4938,
      "å®¢éĩĮ": 4939,
      "çĲī": 4940,
      "ç¢Ľ": 4941,
      "æ¿Ľæ¿Ľ": 4942,
      "æĽ¿": 4943,
      "ä¿Ł": 4944,
      "æ¼³": 4945,
      "ä¾¿æĺ¯": 4946,
      "ç§¯éĽª": 4947,
      "å½Ńæ³½": 4948,
      "è¯¢": 4949,
      "é£İæĹ¥": 4950,
      "èĩªæĪĲ": 4951,
      "ä¸īåįģå¹´": 4952,
      "é¡¹": 4953,
      "æ»¡åŁİ": 4954,
      "æľ¨èĲ½": 4955,
      "èľķ": 4956,
      "ä½³æ°Ķ": 4957,
      "éķ¿ç©º": 4958,
      "å¯Ĵæ³ī": 4959,
      "ä¸ľåĿ¡": 4960,
      "ä½ķåłª": 4961,
      "é»Ħé¹¤": 4962,
      "åĿĲå¯¹": 4963,
      "äºİæŃ¤": 4964,
      "èį·èĬ±": 4965,
      "åı±": 4966,
      "è¿ħ": 4967,
      "å¤ªè¡Į": 4968,
      "æĺ¥äºĳ": 4969,
      "æĹĥ": 4970,
      "çĻ½é¹Ń": 4971,
      "éĨīä¹¡": 4972,
      "æĮ¥æ¯«": 4973,
      "çŀ³": 4974,
      "çĽ¸å°Ĩ": 4975,
      "èİ«æĢª": 4976,
      "èĴĤ": 4977,
      "èĭŀ": 4978,
      "è£Ķ": 4979,
      "åľ£äºº": 4980,
      "æĪĳä»Ĭ": 4981,
      "åİ»åĽ½": 4982,
      "ç§¾": 4983,
      "å¼§": 4984,
      "æĭļ": 4985,
      "éĴ±å¡ĺ": 4986,
      "ä¸Ģè·¯": 4987,
      "ç«Łä½ķ": 4988,
      "ç³Ł": 4989,
      "ä¸Ģçķª": 4990,
      "æ³Ħ": 4991,
      "ç¼Ł": 4992,
      "è¸Ł": 4993,
      "éħ·": 4994,
      "åįĹæŀĿ": 4995,
      "æĸ°æĻ´": 4996,
      "å°ıåĦ¿": 4997,
      "éļıæĦı": 4998,
      "é²Ľ": 4999,
      "æ¤¿": 5000,
      "åĭĭä¸ļ": 5001,
      "åĲĽèĩ£": 5002,
      "é£İåĳ³": 5003,
      "é»Ħå°ĺ": 5004,
      "æ°Ķè±¡": 5005,
      "ä½ķå¤Ħæĺ¯": 5006,
      "è¯ŀ": 5007,
      "é¦ĢçĶŁ": 5008,
      "ä¸Ģåİ»": 5009,
      "çĽ¸ä¾Ŀ": 5010,
      "å°ĺä¸ĸ": 5011,
      "ä¹¡å¿ĥ": 5012,
      "æīĭèĩª": 5013,
      "çİĳ": 5014,
      "æĪĳå®¶": 5015,
      "ä½ľè¯Ĺ": 5016,
      "éĨħ": 5017,
      "åĩłå¤Ħ": 5018,
      "ä¸Ģæłĳ": 5019,
      "æĮĩçĤ¹": 5020,
      "æĸ°å¹´": 5021,
      "æ¹ĺæ°´": 5022,
      "å¹ķåºľ": 5023,
      "å¤©çľŁ": 5024,
      "æĺ¥æ¢¦": 5025,
      "ç»ıè¡Į": 5026,
      "åħ¬åį¿": 5027,
      "åĲİäºº": 5028,
      "ä¹ĿæľĪ": 5029,
      "çĥŁéĽ¾": 5030,
      "éĶ¥": 5031,
      "æ²§æ±Ł": 5032,
      "æĹ¥è¾¹": 5033,
      "ä¸ľé£İåĲ¹": 5034,
      "å²Ĥèĥ½": 5035,
      "è®ºäº¤": 5036,
      "å¾¼": 5037,
      "ä¸Ńç§ĭ": 5038,
      "å°ļä¹¦": 5039,
      "å¸¦éĽ¨": 5040,
      "å¦ĤéĽª": 5041,
      "æľ¨åħ°": 5042,
      "èĥľæ¸¸": 5043,
      "æŁĺ": 5044,
      "é»ĦèıĬ": 5045,
      "æĺŁæ²³": 5046,
      "éªĳé©¬": 5047,
      "æĮĪ": 5048,
      "çİĭæ°Ķ": 5049,
      "éĢ¢åĲĽ": 5050,
      "æĲĶé¦ĸ": 5051,
      "å¯ĴçĥŁ": 5052,
      "æīįåĲį": 5053,
      "è´«è´±": 5054,
      "ä¸įéģĵ": 5055,
      "çģŀ": 5056,
      "æ¸ħæĹ¶": 5057,
      "å½ĴèĪŁ": 5058,
      "ä¹ħå·²": 5059,
      "åŀĤèĢģ": 5060,
      "åİ¦": 5061,
      "ç¥ļ": 5062,
      "åįĹæµ·": 5063,
      "éĨº": 5064,
      "é¾ĻèĻİ": 5065,
      "çº¢é¢ľ": 5066,
      "é¼ĵè§Ĵ": 5067,
      "æŀļ": 5068,
      "è½º": 5069,
      "éķ¿åľ¨": 5070,
      "è¯Ĺæĥħ": 5071,
      "å¸ĥè¡£": 5072,
      "æºº": 5073,
      "åħŃæľĿ": 5074,
      "èķĸ": 5075,
      "æ¬§": 5076,
      "èİºåķ¼": 5077,
      "å½Ŀ": 5078,
      "çīĩçīĩ": 5079,
      "ä¼į": 5080,
      "éĴ¥": 5081,
      "å§ľ": 5082,
      "æģ¬": 5083,
      "åįĥä¸Ī": 5084,
      "æ³¯": 5085,
      "ä¸įèµ·": 5086,
      "å¿ĥå¦Ĥ": 5087,
      "åĩŃé«ĺ": 5088,
      "æ¶ķæ³ª": 5089,
      "æŃ¤åĲĽ": 5090,
      "åĢ¡": 5091,
      "æĭĽéļĲ": 5092,
      "æ¨½éħĴ": 5093,
      "åħĥæ°Ķ": 5094,
      "å¯¥èĲ½": 5095,
      "é¦Ķ": 5096,
      "çĶŁå¹³": 5097,
      "é¸Łå£°": 5098,
      "ç¦»éªļ": 5099,
      "è¿½éļı": 5100,
      "ç¾²çļĩ": 5101,
      "çħĮçħĮ": 5102,
      "åĪł": 5103,
      "åĿĲä¹ħ": 5104,
      "ç¦»ç¾¤": 5105,
      "çĽ¸å¿ĺ": 5106,
      "æľĿå¤ķ": 5107,
      "å²Ĥä¸º": 5108,
      "æĻļèĬĤ": 5109,
      "æŁ³æĿ¡": 5110,
      "æ®ĭéĽª": 5111,
      "çŁ¥æĪĳ": 5112,
      "é«ĺä¸ĭ": 5113,
      "éĽªéľľ": 5114,
      "ç®¨": 5115,
      "éķ¿å¤ľ": 5116,
      "å·²è§ī": 5117,
      "èĤĺ": 5118,
      "èĹ¿": 5119,
      "å¾®éĽ¨": 5120,
      "éĺİ": 5121,
      "ç¢§æµ·": 5122,
      "è¥¿æľĽ": 5123,
      "å¿§æĤ£": 5124,
      "éĺĬéĺĸ": 5125,
      "çĲīçĴĥ": 5126,
      "ç§ĭæ·±": 5127,
      "åįĥå¯»": 5128,
      "èĽĽ": 5129,
      "éľĢ": 5130,
      "çļĤ": 5131,
      "ç´«ç¿ł": 5132,
      "å¤©åįĹ": 5133,
      "å¦ĤåĲĽ": 5134,
      "å¤´çĻ½": 5135,
      "çľ¼æĺİ": 5136,
      "çĻ»åı°": 5137,
      "æĹłå°½": 5138,
      "æģ¢": 5139,
      "ä¸ĩäºº": 5140,
      "ä¼łå®¶": 5141,
      "èĭ¥ä½ķ": 5142,
      "å®ļçŁ¥": 5143,
      "é¼į": 5144,
      "å¤©æľº": 5145,
      "æ²Ľ": 5146,
      "è·¸": 5147,
      "éľľéľ²": 5148,
      "å±±æľĪ": 5149,
      "ä¸Ģå®¤": 5150,
      "è¡Įäºĳ": 5151,
      "ç»¾": 5152,
      "åįĥå²©": 5153,
      "é»Ħé¹Ĥ": 5154,
      "åħ´æĿ¥": 5155,
      "å¿½éĹ»": 5156,
      "åħ«åįģ": 5157,
      "ç´¯ç´¯": 5158,
      "ç¥·": 5159,
      "åı¯æĺ¯": 5160,
      "ä¸ľæľĽ": 5161,
      "ä¹ĿéľĦ": 5162,
      "éħĴéħ£": 5163,
      "åīįèº«": 5164,
      "åĩºå±±": 5165,
      "æºªè¾¹": 5166,
      "ç®¡å¼¦": 5167,
      "åŃ¦å£«": 5168,
      "æľªè¶³": 5169,
      "è¿ĺèĩª": 5170,
      "äºĳå½±": 5171,
      "æ´ŀå¤©": 5172,
      "çŀ¬": 5173,
      "åĪĽ": 5174,
      "åĢıå¿½": 5175,
      "ä¸Ģæ¢¦": 5176,
      "é£İæĢ¥": 5177,
      "æĹ¶äºº": 5178,
      "å¿ĥèĩª": 5179,
      "å½ĴæľŁ": 5180,
      "ä¸ĩæľ¨": 5181,
      "éºĿ": 5182,
      "çĪ¶åŃĲ": 5183,
      "å¾Ĺåı¥": 5184,
      "ä¸ĩæĸĽ": 5185,
      "ç§Ģèī²": 5186,
      "åĪĺéĥİ": 5187,
      "æľīéģĵ": 5188,
      "æłĪ": 5189,
      "åµĩ": 5190,
      "åºĸ": 5191,
      "ç¿±": 5192,
      "èĵĦ": 5193,
      "æĢ»æĺ¯": 5194,
      "è°¨": 5195,
      "ä¸įå¿ĺ": 5196,
      "ç¿İ": 5197,
      "åįĥéĹ¨": 5198,
      "å¤ľå¯Ĵ": 5199,
      "éķľéĩĮ": 5200,
      "çķ´æĺĶ": 5201,
      "åĩ¯": 5202,
      "äºĳéĽ¨": 5203,
      "çĤ·": 5204,
      "èĪŁæ¥«": 5205,
      "æĹłçĶ¨": 5206,
      "çĩĥ": 5207,
      "é£İåĬ¨": 5208,
      "éĢĹ": 5209,
      "è¡ĮæĿİ": 5210,
      "æ½¸": 5211,
      "æ±īå®«": 5212,
      "å±±èĬ±": 5213,
      "ç¼Ń": 5214,
      "æľªé¡»": 5215,
      "èĢģçĹħ": 5216,
      "è¿ĺæľī": 5217,
      "çŃ¾": 5218,
      "æĿĸå±¦": 5219,
      "æ¢Ń": 5220,
      "çªį": 5221,
      "ä¹¡åħ³": 5222,
      "èµ°é©¬": 5223,
      "éĻ¨": 5224,
      "èĭįç¿ł": 5225,
      "ä¸¾ä¸ĸ": 5226,
      "åİ»æĿ¥": 5227,
      "ä»İæķĻ": 5228,
      "ä½¿æĪĳ": 5229,
      "çĴŀ": 5230,
      "æ½ĩæ½ĩ": 5231,
      "åıĻ": 5232,
      "æĽ¾éĹ»": 5233,
      "å½«": 5234,
      "çĶĺæ³ī": 5235,
      "æĺĬ": 5236,
      "äººäºº": 5237,
      "æľªè¯Ĩ": 5238,
      "ç¼¸": 5239,
      "éĺ´æĻ´": 5240,
      "å°ĳéĻµ": 5241,
      "çĪ¶æ¯į": 5242,
      "éĽ¨éĽª": 5243,
      "èİ«ç¬ĳ": 5244,
      "éĹ®è®¯": 5245,
      "æľªå°½": 5246,
      "æ§ĥ": 5247,
      "æĪĳèĩª": 5248,
      "é«Ń": 5249,
      "è¡Įå®¢": 5250,
      "åİ»ä½ı": 5251,
      "æ¹ĸè¾¹": 5252,
      "æ£º": 5253,
      "æļ®å¹´": 5254,
      "ä¸Ģçº¿": 5255,
      "å±±ç©º": 5256,
      "çľ©": 5257,
      "åİĦ": 5258,
      "æ¸ħæ¢¦": 5259,
      "çł¥": 5260,
      "æĸĹçīĽ": 5261,
      "å¤©çĦ¶": 5262,
      "çĳķ": 5263,
      "èĲĭèĲĭ": 5264,
      "æĸ¥": 5265,
      "äººè¡Į": 5266,
      "äººå½Ĵ": 5267,
      "æĹ¥çħ§": 5268,
      "è¶º": 5269,
      "ç§½": 5270,
      "ä¸īäºĶ": 5271,
      "éĩĳé©¬": 5272,
      "çŁĹ": 5273,
      "æŃ¤äºĭ": 5274,
      "åŁİè¥¿": 5275,
      "å²§": 5276,
      "å¯Ĵæ¢ħ": 5277,
      "çĥŁçģ«": 5278,
      "çĬ¹åŃĺ": 5279,
      "çĭ¬å¾Ģ": 5280,
      "æĢĢåı¤": 5281,
      "çıłå¸ĺ": 5282,
      "æ¡Ĥæłĳ": 5283,
      "éľĵè£³": 5284,
      "æĺ¥èĬ±": 5285,
      "çĢĽæ´²": 5286,
      "éºĭé¹¿": 5287,
      "å¿ĥæľŁ": 5288,
      "å¾Ĺå¤±": 5289,
      "çĭ¬æĢľ": 5290,
      "éĵ¶æ±ī": 5291,
      "æ±Ĺæ¼«": 5292,
      "è¿ĩéĽ¨": 5293,
      "çŃīéĸĴ": 5294,
      "æĹłé¦Ģ": 5295,
      "éĤ¯": 5296,
      "åĩłå¤ļ": 5297,
      "æ¸ĶçĪ¶": 5298,
      "æľªè§ģ": 5299,
      "å¯¹æŃ¤": 5300,
      "èĮ«çĦ¶": 5301,
      "éļĲåĩł": 5302,
      "ä¸ĢæĹ¦": 5303,
      "ç¢§èĲ½": 5304,
      "çĶľ": 5305,
      "çĶ»èĪ¹": 5306,
      "å¹¸æľī": 5307,
      "åĮ¹é©¬": 5308,
      "ä¸įè®°": 5309,
      "ä¹ĿåİŁ": 5310,
      "éĹ¨æĪ·": 5311,
      "äº¦å·²": 5312,
      "åĮĹéĺĻ": 5313,
      "åĲ«æĥħ": 5314,
      "ä¸įä½ı": 5315,
      "è¯ĹæĢĿ": 5316,
      "éªŀ": 5317,
      "åĲįåĽŃ": 5318,
      "éĻ¶ä»¤": 5319,
      "æ·ĭæ¼ĵ": 5320,
      "è®¥": 5321,
      "çĬ¹è®°": 5322,
      "éĩİèī²": 5323,
      "æ²¤": 5324,
      "åīįæľĿ": 5325,
      "æŁ´æīī": 5326,
      "æĹłéĻħ": 5327,
      "æľīå£°": 5328,
      "ä¸İè°ģ": 5329,
      "è¥¿é£İåĲ¹": 5330,
      "çĸ®": 5331,
      "çī©èī²": 5332,
      "æĻĵæĹ¥": 5333,
      "ä¼¶": 5334,
      "ä¸ľæĿ¥": 5335,
      "çĻ¾ä¸ĸ": 5336,
      "æķħéĩĮ": 5337,
      "å¿ĺè¨Ģ": 5338,
      "è¸Į": 5339,
      "æĵ¢": 5340,
      "è§¥": 5341,
      "èĬ±å½±": 5342,
      "é«ĺä½İ": 5343,
      "ç©ºåºŃ": 5344,
      "èĢģæĪĲ": 5345,
      "ç«¥åŃĲ": 5346,
      "è¿ĺä¹¡": 5347,
      "åħ¶å¦Ĥ": 5348,
      "åħģ": 5349,
      "åħ¥éĹ¨": 5350,
      "äºĺ": 5351,
      "ä¸įè¨Ģ": 5352,
      "åºĶæĹł": 5353,
      "èĦ¸": 5354,
      "æľħ": 5355,
      "ç»¸": 5356,
      "åı¯åłª": 5357,
      "å®ı": 5358,
      "æĪĳè¾Ī": 5359,
      "ä¸īè½½": 5360,
      "å°ıçªĹ": 5361,
      "çŀ¿": 5362,
      "å¯Ĵæļĳ": 5363,
      "æµģèĲ½": 5364,
      "äºĶå²³": 5365,
      "ç¾¤å³°": 5366,
      "ç´łå¿ĥ": 5367,
      "çīĩå¸Ĩ": 5368,
      "è¸Łè¹°": 5369,
      "éľį": 5370,
      "æ°´æĻ¶": 5371,
      "å¤ļè°¢": 5372,
      "å£°ä¸Ń": 5373,
      "åīįå±±": 5374,
      "äºĶå¹´": 5375,
      "åī©æľī": 5376,
      "æĹłæ¶¯": 5377,
      "åģĥè¹ĩ": 5378,
      "ä½ľå®¢": 5379,
      "éĤº": 5380,
      "éĩĩèį¯": 5381,
      "ç»Ĥ": 5382,
      "æĹ¥æĸľ": 5383,
      "éĥ¸": 5384,
      "çİīå¥³": 5385,
      "åĪ°å®¶": 5386,
      "å³¨å³¨": 5387,
      "ç§ĭå±±": 5388,
      "æ¸ħè°Ī": 5389,
      "åĩłå®¶": 5390,
      "éĨīåĲİ": 5391,
      "èŃī": 5392,
      "èĦīèĦī": 5393,
      "ä¸Ģåį·": 5394,
      "å½ĴæĹ¶": 5395,
      "éĵĹ": 5396,
      "é¥®éħĴ": 5397,
      "çĭĤæŃĮ": 5398,
      "æµ·å¤ĸ": 5399,
      "èİ«å°Ĩ": 5400,
      "èĮħæªĲ": 5401,
      "éĥĬåİŁ": 5402,
      "éĤ¯éĥ¸": 5403,
      "æĹłæĦı": 5404,
      "æĺ¥éħĴ": 5405,
      "éĤ¸": 5406,
      "åĵº": 5407,
      "åĢ¾çĽĸ": 5408,
      "å¾¨": 5409,
      "æ°´æ¸ħ": 5410,
      "æ±Łå·¦": 5411,
      "çī©åįİ": 5412,
      "å¤©äºº": 5413,
      "åĲ¹ç®«": 5414,
      "åĲĦèĩª": 5415,
      "å²·": 5416,
      "é±¼é¸Ł": 5417,
      "èĲ§çĸı": 5418,
      "æ¿ł": 5419,
      "ä¸ĢéĽ¨": 5420,
      "äºĳæłĳ": 5421,
      "ä¸ŃéĹ´": 5422,
      "è¥¿åĽŃ": 5423,
      "å¿½çĦ¶": 5424,
      "èĮ¹": 5425,
      "ç´«å®¸": 5426,
      "ä¹±å±±": 5427,
      "è¯¸å¤©": 5428,
      "ä¸įåħ¥": 5429,
      "å¤©æ²³": 5430,
      "åĨįæĭľ": 5431,
      "äºĳéĽ¾": 5432,
      "ä¸ºäºº": 5433,
      "çŁ³éĹ¨": 5434,
      "èĭįé¾Ļ": 5435,
      "ä¸įåĲĳ": 5436,
      "ä¸Ģæ¦»": 5437,
      "æĲ´": 5438,
      "å½ĴçĶ°": 5439,
      "çªĿ": 5440,
      "åĸľè§ģ": 5441,
      "å·²æĺ¯": 5442,
      "éĿŀåĲ¾": 5443,
      "ç§¦æ·®": 5444,
      "èľĢéģĵ": 5445,
      "å¦Ĥåı¯": 5446,
      "åħīæĻ¯": 5447,
      "çĻ¾ä¸Ī": 5448,
      "æ¶İ": 5449,
      "æ¬²çŁ¥": 5450,
      "é¬ĵæ¯Ľ": 5451,
      "ä½ķä¹ĭ": 5452,
      "çľŁäºº": 5453,
      "ç¨»ç²±": 5454,
      "æĹłèµĸ": 5455,
      "è½¸": 5456,
      "æŃ¤å¤ľ": 5457,
      "åŃĲäºĳ": 5458,
      "èĤ±": 5459,
      "çŁ³å¤´": 5460,
      "æĢĿå½Ĵ": 5461,
      "æĹ§æĹ¥": 5462,
      "çĳ¶èįī": 5463,
      "é¦Ī": 5464,
      "åħ³å¿ĥ": 5465,
      "ä¸Ģæŀķ": 5466,
      "å¥ģ": 5467,
      "åĩłä½ķ": 5468,
      "èļĢ": 5469,
      "æĹłåı¯": 5470,
      "æīĪ": 5471,
      "è¥¦": 5472,
      "èħķ": 5473,
      "èĩĨ": 5474,
      "éķ¿æĹ¥": 5475,
      "æµģä¼ł": 5476,
      "å·ī": 5477,
      "çĳ°": 5478,
      "é©±é©°": 5479,
      "ç¯±èĲ½": 5480,
      "æŀª": 5481,
      "èĬ±æĹ¶": 5482,
      "æ»¥": 5483,
      "äºĭäºĭ": 5484,
      "ä¹ŁçŁ¥": 5485,
      "çĶ²åŃĲ": 5486,
      "è¡ĶæĿ¯": 5487,
      "ç»ĺ": 5488,
      "æĶĺ": 5489,
      "æŀĿä¸Ĭ": 5490,
      "å·¥å¤«": 5491,
      "æ¯ķç«Ł": 5492,
      "éĢ¡": 5493,
      "çŁ³æ¡¥": 5494,
      "è±ķ": 5495,
      "åºĲå±±": 5496,
      "å¼Ĭ": 5497,
      "å¯¥å»ĵ": 5498,
      "èĤĥèĤĥ": 5499,
      "èĢĺ": 5500,
      "ä½ķéĻĲ": 5501,
      "èĬ±æ»¡": 5502,
      "æĺ¥åİ»": 5503,
      "æ¸ħéĺ´": 5504,
      "èº«åĲİ": 5505,
      "éľ²åįİ": 5506,
      "å¥İ": 5507,
      "ç¦¦": 5508,
      "å·²è¿ĩ": 5509,
      "æŀķä¸Ĭ": 5510,
      "åĲģåĹŁ": 5511,
      "èĲ½æľ¨": 5512,
      "æŁ°": 5513,
      "å®īçĶ¨": 5514,
      "åħŃåįģ": 5515,
      "èºĩ": 5516,
      "åŁİä¸ľ": 5517,
      "æ¦Ķ": 5518,
      "æĥĳ": 5519,
      "ä¸İæĪĳ": 5520,
      "ç»¿èĭĶ": 5521,
      "è¡¿": 5522,
      "éĺĨ": 5523,
      "ç§ĭäºĳ": 5524,
      "ä¸ĩæłĳ": 5525,
      "åŁİä¸ĭ": 5526,
      "çĤŃ": 5527,
      "çĿĩ": 5528,
      "ç®«é¼ĵ": 5529,
      "ä¸ĢåŃĹ": 5530,
      "æ±ª": 5531,
      "èĩªçĶ±": 5532,
      "å¹³æ²Ļ": 5533,
      "æĢľåĲĽ": 5534,
      "èĬĿåħ°": 5535,
      "æĽ¦": 5536,
      "è¿ĩçľ¼": 5537,
      "æ±¹": 5538,
      "æ¸ħæ±Ł": 5539,
      "å¤ļäºĭ": 5540,
      "éģĵå£«": 5541,
      "èİ«ä½ľ": 5542,
      "éĺį": 5543,
      "è¹ĭ": 5544,
      "æ¡ĥåı¶": 5545,
      "åĮĸä¸º": 5546,
      "å¸ĿåŃĲ": 5547,
      "éŀħ": 5548,
      "åıĬæĹ¶": 5549,
      "ä¸įå¯Ĳ": 5550,
      "éĹ¼": 5551,
      "æ¬²å°½": 5552,
      "åĥµ": 5553,
      "åıĸæ¬¡": 5554,
      "è¯°": 5555,
      "æ±Łå¹²": 5556,
      "æľĿå¤©": 5557,
      "çĪ¨": 5558,
      "æ³ªçĹķ": 5559,
      "åĨµæľī": 5560,
      "èĬŃèķī": 5561,
      "é«ĺæŀķ": 5562,
      "å¤ľéķ¿": 5563,
      "ä¸ĩä¸Ī": 5564,
      "æ³¢æ¾ľ": 5565,
      "æĥĬå¿ĥ": 5566,
      "å¯¤": 5567,
      "åĩĮäºĳ": 5568,
      "æĿ¼": 5569,
      "æľīåŃĲ": 5570,
      "ä»Ĭäºº": 5571,
      "ä¸ĸæĹł": 5572,
      "ç´«èĬĿ": 5573,
      "åľ£æľĿ": 5574,
      "æ¸¯": 5575,
      "éĿĴèįī": 5576,
      "æ»¡åºŃ": 5577,
      "éĴŁé¼ĵ": 5578,
      "è°¢åħ¬": 5579,
      "æµ©æŃĮ": 5580,
      "éħĴéĨĴ": 5581,
      "ç»´æĳ©": 5582,
      "å·²çŁ£": 5583,
      "çº¢æĹ¥": 5584,
      "è¯Ĺç¯ĩ": 5585,
      "ç¾¤å±±": 5586,
      "ä¸Ģæ®µ": 5587,
      "ä½ķæľī": 5588,
      "èĢģçŁ£": 5589,
      "çĻ¾å¿§": 5590,
      "éĵİ": 5591,
      "æ¸¡æ±Ł": 5592,
      "æ¸ħéľľ": 5593,
      "å¤§åľ°": 5594,
      "è¯º": 5595,
      "æĻ®": 5596,
      "é¢ħ": 5597,
      "ç©ºæŀĹ": 5598,
      "èĢģæĪĳ": 5599,
      "æĿ¾ä¸ĭ": 5600,
      "èģļæķ£": 5601,
      "ç¬ĥ": 5602,
      "ç½Ħ": 5603,
      "åĲ´å±±": 5604,
      "çĬ¬åĲł": 5605,
      "æĦĨ": 5606,
      "ä»ĬæĿ¥": 5607,
      "å°ļåı¯": 5608,
      "å¿§åĽ½": 5609,
      "èŁĢ": 5610,
      "å¹¿å¯Ĵ": 5611,
      "ä¸įåĪĨ": 5612,
      "ä¸ĩæĸ¹": 5613,
      "çĬ¹åı¯": 5614,
      "éĽªåĲİ": 5615,
      "æ¸ºèĮ«": 5616,
      "éĢ¡å·¡": 5617,
      "ä¸Ģè¨Ģ": 5618,
      "æ¶¸": 5619,
      "ä¸İå¤©": 5620,
      "éĢ¢æĺ¥": 5621,
      "ç»¸ç¼ª": 5622,
      "æĹłä¹ĥ": 5623,
      "ç«¹æŀĿ": 5624,
      "è°¤": 5625,
      "æĪĳçĪ±": 5626,
      "æ¡¥è¾¹": 5627,
      "ç»£è¡£": 5628,
      "æĳĦ": 5629,
      "æľ¬æĿ¥": 5630,
      "çĶĺæ£ł": 5631,
      "èĬĭ": 5632,
      "æľªå¼Ģ": 5633,
      "èĲ½çħ§": 5634,
      "éĹ»åĲĽ": 5635,
      "åĮĸä½ľ": 5636,
      "ä»¿": 5637,
      "ä¸ĩä»ŀ": 5638,
      "æ½¢": 5639,
      "éĩİé¹¤": 5640,
      "èĮħèĮ¨": 5641,
      "è¯įèµĭ": 5642,
      "åĽ¢åĽ¢": 5643,
      "ä¸Ģçģ¯": 5644,
      "èĬ·": 5645,
      "èĩªçĽ¸": 5646,
      "åľ°åĥ»": 5647,
      "çªľ": 5648,
      "æĸ¹å¯¸": 5649,
      "éģ¥éģ¥": 5650,
      "åĳ¨æĹĭ": 5651,
      "ç¾¡åĲĽ": 5652,
      "æŃ¤å¤ķ": 5653,
      "ä¸Ĭå¤´": 5654,
      "é¸Łéģĵ": 5655,
      "éĤ£åı¯": 5656,
      "æ´ŀåı£": 5657,
      "é«ĺå¤Ħ": 5658,
      "ä¸ĭé©¬": 5659,
      "æ¯µ": 5660,
      "ä½ľèµĭ": 5661,
      "ç¢§å±±": 5662,
      "æ½¦åĢĴ": 5663,
      "å¤©éģĵ": 5664,
      "çĻ½èĺĭ": 5665,
      "èĤ¡": 5666,
      "å¥½å±±": 5667,
      "æ¤İ": 5668,
      "ç¬¬åĩł": 5669,
      "çĿ¡èµ·": 5670,
      "èĲĥ": 5671,
      "ä¸ľåĲĽ": 5672,
      "åħīçħ§": 5673,
      "èĸ¤": 5674,
      "æŁ³çµ®": 5675,
      "ä¸įçĦ¶": 5676,
      "ä¸ĢåįĬ": 5677,
      "ä¸Ģå¿µ": 5678,
      "åģĪ": 5679,
      "è¿ĩå®¢": 5680,
      "ä¸įå¹³": 5681,
      "ä¼łéĹ»": 5682,
      "ä¸įç®¡": 5683,
      "ä¸įç¾¡": 5684,
      "éĿĴé¸Ł": 5685,
      "æ»¡æŀĹ": 5686,
      "ä¸įæľ½": 5687,
      "å¤©æľ«": 5688,
      "å¥Ħ": 5689,
      "ä¸īæľĿ": 5690,
      "åĸī": 5691,
      "ç»į": 5692,
      "çĩķå±±": 5693,
      "èŁĭ": 5694,
      "éĽ¨æĿ¥": 5695,
      "è¥¿æ±Ł": 5696,
      "é¸¾åĩ¤": 5697,
      "ç§£": 5698,
      "çĽ¸éĹ®": 5699,
      "å¹³æ¹ĸ": 5700,
      "è¾¹åŁİ": 5701,
      "å³°å³¦": 5702,
      "ç©·éĢĶ": 5703,
      "åĲĥ": 5704,
      "ä¸ĢåĽŀ": 5705,
      "å®«éĺĻ": 5706,
      "èĻ½äºĳ": 5707,
      "æľ±å¼¦": 5708,
      "æĿ³æĿ³": 5709,
      "æľħæĿ¥": 5710,
      "ä¸Ģäºº": 5711,
      "æĺ¥æ±Ł": 5712,
      "çĥĺ": 5713,
      "éħĴå®¶": 5714,
      "æĺĻ": 5715,
      "è¾©": 5716,
      "è·ĭ": 5717,
      "æħ¢": 5718,
      "æ¬¢å¨±": 5719,
      "æľªä¸º": 5720,
      "ä¿¸": 5721,
      "ç¬ĳè°Ī": 5722,
      "æĻ´æĹ¥": 5723,
      "çĲ¼çĳ¶": 5724,
      "äºĳæł¹": 5725,
      "éĩĳè°·": 5726,
      "æİĩ": 5727,
      "åıªåºĶ": 5728,
      "ç®Ķ": 5729,
      "æľ¬æĺ¯": 5730,
      "èĴ²åĽ¢": 5731,
      "èĭĵ": 5732,
      "æĺ¥æĦģ": 5733,
      "å½¢éª¸": 5734,
      "ä¸Ģå³°": 5735,
      "äº¦å¤į": 5736,
      "çº¢å¦Ĩ": 5737,
      "åħ³æĥħ": 5738,
      "éªļäºº": 5739,
      "é¢łåĢĴ": 5740,
      "éĹ¨å··": 5741,
      "æ³ªæ»¡": 5742,
      "æĲħ": 5743,
      "ä¸īåįĥéĩĮ": 5744,
      "äº¬åĽ½": 5745,
      "ä¸įéļı": 5746,
      "æ±´": 5747,
      "å²ģæĹ¶": 5748,
      "å©ļ": 5749,
      "æ¯Ĺ": 5750,
      "æµ®åĲį": 5751,
      "çªĹå¤ĸ": 5752,
      "åŃ¦éģĵ": 5753,
      "èĻ½æĹł": 5754,
      "åĨ¥é¸¿": 5755,
      "æĺ¥åĽŀ": 5756,
      "é©½": 5757,
      "æ±ŁæĿĳ": 5758,
      "åŃ¤æĿĳ": 5759,
      "èĭ¦åĲŁ": 5760,
      "çĤ¹çĤ¹": 5761,
      "çĥ½çĥŁ": 5762,
      "å±£": 5763,
      "çĶŁè®¡": 5764,
      "å¦ĤéĽ¨": 5765,
      "æ¸ħæŃĮ": 5766,
      "åŃ¤èĩ£": 5767,
      "èĬ±æ°Ķ": 5768,
      "æĹ¶éĹ»": 5769,
      "åĲĽä»Ĭ": 5770,
      "é¦Ļçģ«": 5771,
      "èĭįçĥŁ": 5772,
      "å£®å¿ĥ": 5773,
      "åĩĽåĩĽ": 5774,
      "ä¸īåįģåħŃ": 5775,
      "æĹĤ": 5776,
      "éĵĦ": 5777,
      "ä¼ĺæ¸¸": 5778,
      "åĮ¡åºĲ": 5779,
      "è¡ĮåĲŁ": 5780,
      "äºĶéĻµ": 5781,
      "å¤©å®ĩ": 5782,
      "åĸ»": 5783,
      "åıĮåıĮ": 5784,
      "ä¸Ģæ´Ĺ": 5785,
      "é£İå£°": 5786,
      "æŀ°": 5787,
      "åĽłåĲĽ": 5788,
      "å¶Ļ": 5789,
      "å¦»åŃĲ": 5790,
      "æĹ¶ä¸Ģ": 5791,
      "å¦Ĥå±±": 5792,
      "ä¸ĩéĩį": 5793,
      "å·²çŁ¥": 5794,
      "çı°": 5795,
      "æĿ¾æ¥¸": 5796,
      "ä»Ħ": 5797,
      "é£ŀäºĳ": 5798,
      "å°ıå±±": 5799,
      "ç´«å¾®": 5800,
      "ä¸įæķĻ": 5801,
      "æ²±": 5802,
      "åľ¨åħ¹": 5803,
      "åħ¥å¤ľ": 5804,
      "èģĴ": 5805,
      "éĶ¦åĽĬ": 5806,
      "ç¯®èĪĨ": 5807,
      "é£İæ¶Ľ": 5808,
      "éĽªèĬ±": 5809,
      "ç¿łåįİ": 5810,
      "éģ¥æĥ³": 5811,
      "é£Ĵé£Ĵ": 5812,
      "çĽİ": 5813,
      "åı¯äºº": 5814,
      "åīįæĹ¥": 5815,
      "çĬ¹åłª": 5816,
      "è°Ĺ": 5817,
      "ä¸ŃåºŃ": 5818,
      "èĤĿèĥĨ": 5819,
      "èŁĭèŁĢ": 5820,
      "ä½ķå¿ĥ": 5821,
      "ç«º": 5822,
      "åįİè¡¨": 5823,
      "åĽ½å£«": 5824,
      "æĹłæŀģ": 5825,
      "ä¸īå³¡": 5826,
      "å¯Ĵå±±": 5827,
      "ç½ķ": 5828,
      "äººèĩª": 5829,
      "éĽ¨åĪĿ": 5830,
      "æĶ¯ç¦»": 5831,
      "å²§å³£": 5832,
      "ä¸įæĥĬ": 5833,
      "äºĳç«¯": 5834,
      "æĻļåĩī": 5835,
      "æĽ¾è§ģ": 5836,
      "ç¹ĩ": 5837,
      "æĹłæŃ¤": 5838,
      "æľĪå½±": 5839,
      "å¥½é£İ": 5840,
      "èįĴæĿĳ": 5841,
      "å¸Ŀçİĭ": 5842,
      "ä»ĻåŃĲ": 5843,
      "åĿĤ": 5844,
      "æµ¥": 5845,
      "çĻ¯": 5846,
      "å¥¥": 5847,
      "éĻ·": 5848,
      "ç¾ģæĹħ": 5849,
      "é¹Ĺ": 5850,
      "é¸Łé¸£": 5851,
      "æĹłé£İ": 5852,
      "æ´Ħ": 5853,
      "å¯»å¹½": 5854,
      "çªĹä¸ĭ": 5855,
      "éģĹæģ¨": 5856,
      "èĥŃ": 5857,
      "æĥħæĢĢ": 5858,
      "çĭŃ": 5859,
      "åįĹé£ŀ": 5860,
      "æµģæ³ī": 5861,
      "åįģåħ«": 5862,
      "è²Ķ": 5863,
      "èĺ¼": 5864,
      "é£ŀæ³ī": 5865,
      "å²ģæĻı": 5866,
      "åı¶èĲ½": 5867,
      "æ°´çŁ³": 5868,
      "éĹ®æ´¥": 5869,
      "æĿ¾éĺ´": 5870,
      "ä¸Ģå¯¸": 5871,
      "å²ĺ": 5872,
      "ç¨¿": 5873,
      "èµ¤æĿ¾": 5874,
      "æ²³æµģ": 5875,
      "å¸Ŀä¹¡": 5876,
      "èĵ¬çĢĽ": 5877,
      "å¤ľéĺĳ": 5878,
      "çªł": 5879,
      "æ¨Ĺ": 5880,
      "ä½³å¤Ħ": 5881,
      "è¥Ħéĺ³": 5882,
      "åĽ·": 5883,
      "çĸıæŀĹ": 5884,
      "å¿ĥçŁ¥": 5885,
      "çļ¤": 5886,
      "èİ«æĦģ": 5887,
      "ç¿±ç¿Ķ": 5888,
      "å¹Į": 5889,
      "éķĤ": 5890,
      "æĺİåıĳ": 5891,
      "çŁ³å®¤": 5892,
      "çŃĲ": 5893,
      "æĥ³åĥı": 5894,
      "åĢ¦æ¸¸": 5895,
      "å¾Ĺä¼¼": 5896,
      "å¤§éĽħ": 5897,
      "è¿ŀäºĳ": 5898,
      "å¼©": 5899,
      "ä½ķåľ°": 5900,
      "æ¸ħç»Ŀ": 5901,
      "ä¸İäºº": 5902,
      "è½»èĪŁ": 5903,
      "æĭĤè¡£": 5904,
      "ä¸įåĽł": 5905,
      "çĻ½éª¨": 5906,
      "çĻ½çĴ§": 5907,
      "é£ŀéĽª": 5908,
      "æ¬²åİ»": 5909,
      "æĹ§äºĭ": 5910,
      "å°ıæ¥¼": 5911,
      "ä¸¤åľ°": 5912,
      "ç¿łç«¹": 5913,
      "äºŁ": 5914,
      "ç§«": 5915,
      "çĤ³": 5916,
      "å®īåľ¨": 5917,
      "åıªæĺ¯": 5918,
      "å¤ªèĻļ": 5919,
      "åĨ°å£¶": 5920,
      "è¶ħçĦ¶": 5921,
      "æĸľæĻĸ": 5922,
      "ç¤¾ç¨·": 5923,
      "ä¸Ģä¸ĺ": 5924,
      "ä½ķåĬ³": 5925,
      "ç©ºç¿ł": 5926,
      "è¯įå®¢": 5927,
      "å·įå·į": 5928,
      "æ¸Į": 5929,
      "å¦¹": 5930,
      "ä¸ºæĬ¥": 5931,
      "é£ŀèħ¾": 5932,
      "å®«ä¸Ń": 5933,
      "å®Ŀåīĳ": 5934,
      "èĤĩ": 5935,
      "éĿŀåħ³": 5936,
      "æĳ¹": 5937,
      "é½ĳ": 5938,
      "åĿ¼": 5939,
      "ä¸ĸæīĢ": 5940,
      "å¿½å¿½": 5941,
      "èĺ§": 5942,
      "çĤĬçĥŁ": 5943,
      "ä¸Ģæĸ¹": 5944,
      "çĥŁèĬ±": 5945,
      "ç½ħ": 5946,
      "éľĸéĽ¨": 5947,
      "å°ıæ¡¥": 5948,
      "èħ»": 5949,
      "åį§é¾Ļ": 5950,
      "çºµæľī": 5951,
      "ä¸Ģæ°Ķ": 5952,
      "æŀĲ": 5953,
      "ä¼¼æ°´": 5954,
      "è¸µ": 5955,
      "éļĶå²¸": 5956,
      "æĭĽéŃĤ": 5957,
      "éľ¾": 5958,
      "éĩİèĬ±": 5959,
      "ç»Ĩç»Ĩ": 5960,
      "å¯Ł": 5961,
      "ä¸Ģä»»": 5962,
      "ä¸ľæŀĹ": 5963,
      "åĽĽæľĪ": 5964,
      "ç¾¤ä»Ļ": 5965,
      "éĶĢéŃĤ": 5966,
      "çĥĤæ¼«": 5967,
      "äººçĥŁ": 5968,
      "åįĥå®¶": 5969,
      "æķ°è¡Į": 5970,
      "æĻĵæĿ¥": 5971,
      "çīĩäºĳ": 5972,
      "ä¸įåı¯è§ģ": 5973,
      "äººçļĨ": 5974,
      "å¦ĵ": 5975,
      "èļĬ": 5976,
      "çŃīéĹ²": 5977,
      "æ¸ħæĻ¨": 5978,
      "æł¾": 5979,
      "æĪİé©¬": 5980,
      "è·»æĶĢ": 5981,
      "æĸ¸": 5982,
      "ä¸ĢæľĪ": 5983,
      "é©º": 5984,
      "æłĳå½±": 5985,
      "èĵ¿": 5986,
      "ç»¿éĩİ": 5987,
      "èĥ§": 5988,
      "è¶¾": 5989,
      "åŃ¤çģ¯": 5990,
      "å®«æ®¿": 5991,
      "åį³ä»Ĭ": 5992,
      "æĢªçŁ³": 5993,
      "èĭľ": 5994,
      "æ·Ļ": 5995,
      "å£®å¿Ĺ": 5996,
      "çº¤çº¤": 5997,
      "çĶĳ": 5998,
      "ç¬¥": 5999,
      "çĸıå½±": 6000,
      "éĽģè¡Į": 6001,
      "æŃ¤å±±": 6002,
      "å¸ĿåŁİ": 6003,
      "æĦ§æĪĳ": 6004,
      "æ¢ģåĽŃ": 6005,
      "å¿łåŃĿ": 6006,
      "èĢĨæĹ§": 6007,
      "åī¯": 6008,
      "ä¿Ľ": 6009,
      "éĿĴèİ²": 6010,
      "åħ¶éĹ´": 6011,
      "èĢģåĨľ": 6012,
      "éĽªä¸Ń": 6013,
      "ç²¼": 6014,
      "ä¸ľå®¶": 6015,
      "åķĸ": 6016,
      "æ®ĭå¹´": 6017,
      "å¤ªæ¸ħ": 6018,
      "æ½ºæ½º": 6019,
      "è¸Įèºĩ": 6020,
      "ä¸Ģæºª": 6021,
      "æ³¾": 6022,
      "æĭĨ": 6023,
      "åĲĳè°ģ": 6024,
      "è±¸": 6025,
      "åĨµä¹ĥ": 6026,
      "èĬĬ": 6027,
      "ä¸Ĭå®¢": 6028,
      "å®¶è´«": 6029,
      "æŁĿ": 6030,
      "åħ¥å±±": 6031,
      "å²©å£ĳ": 6032,
      "æī¿æĺİ": 6033,
      "æľīçº¦": 6034,
      "çĽ¸æĲº": 6035,
      "ä¸ĩé©¬": 6036,
      "åĮĹæĿ¥": 6037,
      "è¹²": 6038,
      "éĤ£å¤į": 6039,
      "èİºå£°": 6040,
      "ä¸įéĹ®": 6041,
      "åĪĴ": 6042,
      "äºĳæŀĹ": 6043,
      "åįĥé¡·": 6044,
      "ä¸ĩå²ģ": 6045,
      "å·²è§ģ": 6046,
      "æļĹé¦Ļ": 6047,
      "å¤©ç©º": 6048,
      "éħ¥": 6049,
      "çĻ½æ°´": 6050,
      "æĭĬ": 6051,
      "æ»ĵ": 6052,
      "åºĶæĢľ": 6053,
      "ä¸įåİ»": 6054,
      "å¤©åħī": 6055,
      "æľªæķ¢": 6056,
      "æĿ¾èıĬ": 6057,
      "åıĮéĺĻ": 6058,
      "åıī": 6059,
      "æĹłçĶŁ": 6060,
      "çĭ¬éĨĴ": 6061,
      "æĿ¾å£°": 6062,
      "æ¸¡å¤´": 6063,
      "èĬ°èį·": 6064,
      "æ²®": 6065,
      "åįĹæľĽ": 6066,
      "æłĳèī²": 6067,
      "åĮĹæŀģ": 6068,
      "ä¾¿æ¬²": 6069,
      "åĬ³çĶŁ": 6070,
      "ä¸įå«Į": 6071,
      "èĩªæĿ¥": 6072,
      "é©¶": 6073,
      "éľľé£İ": 6074,
      "é©¿è·¯": 6075,
      "çİīå±±": 6076,
      "å³ĭ": 6077,
      "æĦģäºº": 6078,
      "ä¸Ķåĸľ": 6079,
      "çĿ£": 6080,
      "æ¤Ģ": 6081,
      "åĦĴåĨł": 6082,
      "éģ¿ä¸ĸ": 6083,
      "å°ĺå¯°": 6084,
      "æĸĩéĩĩ": 6085,
      "ç¥ŀæĺİ": 6086,
      "ç©·æĦģ": 6087,
      "åľ£æĺİ": 6088,
      "éŁ³ä¹¦": 6089,
      "çŀ¥": 6090,
      "ç°¿ä¹¦": 6091,
      "ä¸Ģæ£¹": 6092,
      "è½§": 6093,
      "åĬ£": 6094,
      "ä¸ºå°Ķ": 6095,
      "æĺİéķľ": 6096,
      "èĲ½å°½": 6097,
      "çŁ³å£ģ": 6098,
      "åĲĳæĻļ": 6099,
      "èĥŃèĦĤ": 6100,
      "çĻ½è¡£": 6101,
      "æ¸¸ä¸Ŀ": 6102,
      "æĬķèĢģ": 6103,
      "æĹ»": 6104,
      "æĹłæĹ¶": 6105,
      "åįĹåİ»": 6106,
      "åĽĽé¡¾": 6107,
      "èı½": 6108,
      "èĩªå¤©": 6109,
      "å¯Ĵåħī": 6110,
      "éĩİå¯º": 6111,
      "å¯Ħä¹¦": 6112,
      "åħŃåĲĪ": 6113,
      "ä¸ĢåıĮ": 6114,
      "èĬ±æŁ³": 6115,
      "åįĬç©º": 6116,
      "ä¸įåĩı": 6117,
      "åı¯çŁ¥": 6118,
      "æĮ¯è¡£": 6119,
      "èĭľèĵ¿": 6120,
      "æĸ²": 6121,
      "é£İéĽħ": 6122,
      "é«ĺå³°": 6123,
      "ç¾İéħĴ": 6124,
      "å¯®": 6125,
      "æ°´èĲ½": 6126,
      "æĽ´æ·±": 6127,
      "çĽ¸ä¼ł": 6128,
      "ä¸ľéĺģ": 6129,
      "èĻ½æľī": 6130,
      "æĹłèģĬ": 6131,
      "çī²": 6132,
      "é¢Ī": 6133,
      "æĺİåħī": 6134,
      "å¤§æµ·": 6135,
      "åħ°äºŃ": 6136,
      "æĺ¼å¤ľ": 6137,
      "éĻĩå¤´": 6138,
      "éª¢é©¬": 6139,
      "æĹłä¿Ĺ": 6140,
      "æľªèĢģ": 6141,
      "åįĥå®ĺ": 6142,
      "è¿ľæłĳ": 6143
    },
    "merges": [
      [
        "Ģ",
        "Ĥ"
      ],
      [
        "ã",
        "ĢĤ"
      ],
      [
        "ä",
        "¸"
      ],
      [
        "ä",
        "º"
      ],
      [
        "å",
        "¤"
      ],
      [
        "æ",
        "ľ"
      ],
      [
        "æ",
        "Ĺ"
      ],
      [
        "å",
        "Ĳ"
      ],
      [
        "å",
        "ı"
      ],
      [
        "å",
        "ħ"
      ],
      [
        "å",
        "®"
      ],
      [
        "å",
        "į"
      ],
      [
        "æ",
        "ĺ"
      ],
      [
        "å",
        "°"
      ],
      [
        "ä",
        "¹"
      ],
      [
        "ä",
        "»"
      ],
      [
        "æ",
        "Ŀ"
      ],
      [
        "ä",
        "½"
      ],
      [
        "è",
        "¿"
      ],
      [
        "é",
        "£"
      ],
      [
        "å",
        "±"
      ],
      [
        "ä¸",
        "į"
      ],
      [
        "å",
        "¹"
      ],
      [
        "å",
        "¿"
      ],
      [
        "å",
        "¾"
      ],
      [
        "æ",
        "ĸ"
      ],
      [
        "é",
        "ĩ"
      ],
      [
        "å",
        "¯"
      ],
      [
        "é",
        "Ĺ"
      ],
      [
        "æ",
        "µ"
      ],
      [
        "äº",
        "º"
      ],
      [
        "ç",
        "Ķ"
      ],
      [
        "é",
        "Ľ"
      ],
      [
        "è",
        "¯"
      ],
      [
        "å",
        "ĩ"
      ],
      [
        "ç",
        "»"
      ],
      [
        "ä¸",
        "Ģ"
      ],
      [
        "æ",
        "Ī"
      ],
      [
        "æ",
        "Ń"
      ],
      [
        "è",
        "Ĭ"
      ],
      [
        "æ",
        "¸"
      ],
      [
        "å",
        "Ī"
      ],
      [
        "å",
        "½"
      ],
      [
        "é£",
        "İ"
      ],
      [
        "å",
        "Ń"
      ],
      [
        "å",
        "Ľ"
      ],
      [
        "å±",
        "±"
      ],
      [
        "æ",
        "°"
      ],
      [
        "ç",
        "Ľ"
      ],
      [
        "è",
        "¡"
      ],
      [
        "æ",
        "±"
      ],
      [
        "æ",
        "Ģ"
      ],
      [
        "ç",
        "§"
      ],
      [
        "ç",
        "Ł"
      ],
      [
        "ä",
        "¼"
      ],
      [
        "æĹ",
        "ł"
      ],
      [
        "å",
        "ľ"
      ],
      [
        "å",
        "º"
      ],
      [
        "è",
        "§"
      ],
      [
        "å",
        "·"
      ],
      [
        "æľ",
        "ī"
      ],
      [
        "è",
        "ĩ"
      ],
      [
        "æ",
        "ī"
      ],
      [
        "é",
        "ģ"
      ],
      [
        "é",
        "ĺ"
      ],
      [
        "ç",
        "Ļ"
      ],
      [
        "è",
        "°"
      ],
      [
        "å",
        "¦"
      ],
      [
        "ç",
        "ľ"
      ],
      [
        "å¤",
        "©"
      ],
      [
        "æ",
        "ĥ"
      ],
      [
        "é",
        "Ŀ"
      ],
      [
        "å",
        "¼"
      ],
      [
        "å",
        "Ĩ"
      ],
      [
        "æĹ",
        "¥"
      ],
      [
        "äº",
        "ĳ"
      ],
      [
        "æĿ",
        "¥"
      ],
      [
        "è",
        "Ģ"
      ],
      [
        "ä½",
        "ķ"
      ],
      [
        "æ",
        "³"
      ],
      [
        "æ",
        "Ħ"
      ],
      [
        "æ",
        "ŀ"
      ],
      [
        "é",
        "Ģ"
      ],
      [
        "å",
        "¸"
      ],
      [
        "æ",
        "ķ"
      ],
      [
        "å",
        "²"
      ],
      [
        "è",
        "į"
      ],
      [
        "é",
        "ļ"
      ],
      [
        "å",
        "£"
      ],
      [
        "èĬ",
        "±"
      ],
      [
        "å",
        "İ"
      ],
      [
        "ç",
        "İ"
      ],
      [
        "è",
        "ĭ"
      ],
      [
        "æ",
        "²"
      ],
      [
        "æ",
        "Ľ"
      ],
      [
        "æ",
        "Ļ"
      ],
      [
        "è",
        "Ĳ"
      ],
      [
        "æĺ",
        "¥"
      ],
      [
        "è",
        "½"
      ],
      [
        "å",
        "¥"
      ],
      [
        "ä¸",
        "Ń"
      ],
      [
        "è",
        "µ"
      ],
      [
        "ç",
        "«"
      ],
      [
        "é",
        "¦"
      ],
      [
        "é",
        "¸"
      ],
      [
        "å¹",
        "´"
      ],
      [
        "çĶ",
        "Ł"
      ],
      [
        "ç",
        "©"
      ],
      [
        "ç",
        "º"
      ],
      [
        "æľ",
        "Ī"
      ],
      [
        "èĩ",
        "ª"
      ],
      [
        "é",
        "ľ"
      ],
      [
        "è",
        "¾"
      ],
      [
        "æĹ",
        "¶"
      ],
      [
        "æ°",
        "´"
      ],
      [
        "é",
        "ķ"
      ],
      [
        "è",
        "ĥ"
      ],
      [
        "æ",
        "¢"
      ],
      [
        "å¦",
        "Ĥ"
      ],
      [
        "å",
        "Ĭ"
      ],
      [
        "æ",
        "ł"
      ],
      [
        "é",
        "Ļ"
      ],
      [
        "æ",
        "·"
      ],
      [
        "ä¸",
        "Ĭ"
      ],
      [
        "æ",
        "¬"
      ],
      [
        "ä¸",
        "º"
      ],
      [
        "è",
        "´"
      ],
      [
        "è",
        "Ī"
      ],
      [
        "å",
        "ī"
      ],
      [
        "å¿",
        "ĥ"
      ],
      [
        "ç",
        "ĥ"
      ],
      [
        "è",
        "®"
      ],
      [
        "ç",
        "¿"
      ],
      [
        "ç",
        "¬"
      ],
      [
        "æ",
        "Ĭ"
      ],
      [
        "çĽ",
        "¸"
      ],
      [
        "æ",
        "ģ"
      ],
      [
        "é",
        "©"
      ],
      [
        "çŁ",
        "¥"
      ],
      [
        "é",
        "ħ"
      ],
      [
        "ä",
        "¾"
      ],
      [
        "éķ",
        "¿"
      ],
      [
        "ç§",
        "ĭ"
      ],
      [
        "æ¸",
        "ħ"
      ],
      [
        "æŃ",
        "¤"
      ],
      [
        "æ±",
        "Ł"
      ],
      [
        "æĪ",
        "ĳ"
      ],
      [
        "é",
        "«"
      ],
      [
        "çĻ",
        "½"
      ],
      [
        "æľ",
        "ª"
      ],
      [
        "éĽ",
        "¨"
      ],
      [
        "å½",
        "Ĵ"
      ],
      [
        "ç",
        "ī"
      ],
      [
        "åĲ",
        "Ľ"
      ],
      [
        "å",
        "Į"
      ],
      [
        "è",
        "ī"
      ],
      [
        "ç",
        "¾"
      ],
      [
        "ä",
        "¿"
      ],
      [
        "å¾",
        "Ĺ"
      ],
      [
        "æ",
        "ĭ"
      ],
      [
        "åŃ",
        "Ĳ"
      ],
      [
        "é",
        "¢"
      ],
      [
        "ç",
        "ģ"
      ],
      [
        "å",
        "Ģ"
      ],
      [
        "æ",
        "¶"
      ],
      [
        "åį",
        "ĥ"
      ],
      [
        "é«",
        "ĺ"
      ],
      [
        "è",
        "İ"
      ],
      [
        "è¡",
        "Į"
      ],
      [
        "ä¸",
        "ī"
      ],
      [
        "å",
        "Ŀ"
      ],
      [
        "ç",
        "¥"
      ],
      [
        "è",
        "Ļ"
      ],
      [
        "é",
        "»"
      ],
      [
        "éĿ",
        "Ĵ"
      ],
      [
        "éĩ",
        "Į"
      ],
      [
        "ç©",
        "º"
      ],
      [
        "æĺ",
        "İ"
      ],
      [
        "èĢ",
        "ģ"
      ],
      [
        "æ",
        "ļ"
      ],
      [
        "å¤",
        "ľ"
      ],
      [
        "æ",
        "¡"
      ],
      [
        "ä»",
        "Ĭ"
      ],
      [
        "æ",
        "»"
      ],
      [
        "ä¸",
        "ĩ"
      ],
      [
        "ç",
        "ĭ"
      ],
      [
        "å¯",
        "Ĵ"
      ],
      [
        "äº",
        "ĭ"
      ],
      [
        "å",
        "ł"
      ],
      [
        "ä¸",
        "ĭ"
      ],
      [
        "è§",
        "ģ"
      ],
      [
        "åľ",
        "¨"
      ],
      [
        "æ",
        "Ĥ"
      ],
      [
        "åİ",
        "»"
      ],
      [
        "æ",
        "´"
      ],
      [
        "æĺ",
        "¯"
      ],
      [
        "é",
        "ĥ"
      ],
      [
        "è",
        "¥"
      ],
      [
        "å®",
        "¶"
      ],
      [
        "ç",
        "ķ"
      ],
      [
        "è°",
        "ģ"
      ],
      [
        "ç",
        "¦"
      ],
      [
        "å",
        "Ł"
      ],
      [
        "åį",
        "Ĺ"
      ],
      [
        "åı",
        "¯"
      ],
      [
        "å·",
        "²"
      ],
      [
        "å®",
        "¢"
      ],
      [
        "èĲ",
        "½"
      ],
      [
        "çİ",
        "ī"
      ],
      [
        "é",
        "¹"
      ],
      [
        "æ",
        "Ł"
      ],
      [
        "éĹ",
        "¨"
      ],
      [
        "è",
        "·"
      ],
      [
        "å¤",
        "ļ"
      ],
      [
        "é",
        "¡"
      ],
      [
        "æµ",
        "ģ"
      ],
      [
        "å£",
        "°"
      ],
      [
        "ä¸",
        "İ"
      ],
      [
        "å¤",
        "Ħ"
      ],
      [
        "ä¸",
        "ľ"
      ],
      [
        "æ",
        "Į"
      ],
      [
        "éħ",
        "Ĵ"
      ],
      [
        "é£",
        "ŀ"
      ],
      [
        "æ",
        "¹"
      ],
      [
        "æĸ",
        "°"
      ],
      [
        "ç",
        "¼"
      ],
      [
        "åī",
        "į"
      ],
      [
        "éģ",
        "ĵ"
      ],
      [
        "è¯",
        "Ĺ"
      ],
      [
        "æ¬",
        "²"
      ],
      [
        "ç",
        "Ĭ"
      ],
      [
        "æ",
        "¥"
      ],
      [
        "ä¹",
        "¦"
      ],
      [
        "éĩ",
        "ĳ"
      ],
      [
        "æµ",
        "·"
      ],
      [
        "ç",
        "Ħ"
      ],
      [
        "æ·",
        "±"
      ],
      [
        "æĪ",
        "Ĳ"
      ],
      [
        "è¥",
        "¿"
      ],
      [
        "é",
        "ª"
      ],
      [
        "æ",
        "¯"
      ],
      [
        "åı",
        "¤"
      ],
      [
        "å",
        "ĳ"
      ],
      [
        "çľ",
        "ĭ"
      ],
      [
        "åĩ",
        "º"
      ],
      [
        "è",
        "Ĥ"
      ],
      [
        "æ",
        "Ķ"
      ],
      [
        "æ",
        "®"
      ],
      [
        "æ",
        "º"
      ],
      [
        "å¼",
        "Ģ"
      ],
      [
        "åľ",
        "°"
      ],
      [
        "æ",
        "İ"
      ],
      [
        "çĥ",
        "Ł"
      ],
      [
        "è",
        "Į"
      ],
      [
        "ä½",
        "ľ"
      ],
      [
        "æĽ",
        "´"
      ],
      [
        "è",
        "¶"
      ],
      [
        "ç",
        "ĸ"
      ],
      [
        "çŁ",
        "³"
      ],
      [
        "é",
        "Ĵ"
      ],
      [
        "é",
        "¾"
      ],
      [
        "èĥ",
        "½"
      ],
      [
        "æŀ",
        "Ĺ"
      ],
      [
        "å¤",
        "´"
      ],
      [
        "è",
        "º"
      ],
      [
        "åħ",
        "ī"
      ],
      [
        "ä¸",
        "ĸ"
      ],
      [
        "èį",
        "ī"
      ],
      [
        "éĩ",
        "į"
      ],
      [
        "åħ",
        "¥"
      ],
      [
        "é",
        "Ĥ"
      ],
      [
        "æľ",
        "Ŀ"
      ],
      [
        "é»",
        "Ħ"
      ],
      [
        "åĲ",
        "Į"
      ],
      [
        "é¦",
        "Ļ"
      ],
      [
        "è¿",
        "ľ"
      ],
      [
        "ç",
        "´"
      ],
      [
        "å°",
        "½"
      ],
      [
        "èī",
        "²"
      ],
      [
        "æ¸",
        "¸"
      ],
      [
        "åŁ",
        "İ"
      ],
      [
        "ä»",
        "İ"
      ],
      [
        "æ¢",
        "¦"
      ],
      [
        "æł",
        "ĳ"
      ],
      [
        "äº",
        "¦"
      ],
      [
        "é",
        "Ĩ"
      ],
      [
        "å",
        "ģ"
      ],
      [
        "ç",
        "ª"
      ],
      [
        "è¿",
        "ĺ"
      ],
      [
        "åĩ",
        "ł"
      ],
      [
        "æĥ",
        "ħ"
      ],
      [
        "åĽ",
        "ŀ"
      ],
      [
        "æ°",
        "Ķ"
      ],
      [
        "æĢ",
        "Ŀ"
      ],
      [
        "ç",
        "Ĳ"
      ],
      [
        "å½",
        "ĵ"
      ],
      [
        "åį",
        "ģ"
      ],
      [
        "æĦ",
        "ı"
      ],
      [
        "ç",
        "ļ"
      ],
      [
        "ç",
        "½"
      ],
      [
        "åĲ",
        "į"
      ],
      [
        "çĻ",
        "¾"
      ],
      [
        "å¹",
        "³"
      ],
      [
        "é",
        "¥"
      ],
      [
        "éĹ",
        "´"
      ],
      [
        "çĬ",
        "¹"
      ],
      [
        "é©",
        "¬"
      ],
      [
        "å",
        "³"
      ],
      [
        "å¤",
        "§"
      ],
      [
        "¨",
        "Ģ"
      ],
      [
        "è·",
        "¯"
      ],
      [
        "çĭ",
        "¬"
      ],
      [
        "éĽ",
        "ª"
      ],
      [
        "éļ",
        "¾"
      ],
      [
        "å",
        "ĵ"
      ],
      [
        "å°",
        "Ĩ"
      ],
      [
        "å°",
        "ĺ"
      ],
      [
        "çĦ",
        "¶"
      ],
      [
        "èº",
        "«"
      ],
      [
        "è¿",
        "ĩ"
      ],
      [
        "é¾",
        "Ļ"
      ],
      [
        "é",
        "Ķ"
      ],
      [
        "ç",
        "¢"
      ],
      [
        "å¤",
        "į"
      ],
      [
        "åĪ",
        "°"
      ],
      [
        "æ»",
        "¡"
      ],
      [
        "æĹ",
        "§"
      ],
      [
        "éĺ",
        "³"
      ],
      [
        "è¡",
        "£"
      ],
      [
        "å",
        "Ĵ"
      ],
      [
        "ç",
        "Ń"
      ],
      [
        "åº",
        "Ķ"
      ],
      [
        "éĹ",
        "»"
      ],
      [
        "ä¼",
        "¼"
      ],
      [
        "å",
        "ĸ"
      ],
      [
        "æľ",
        "Ľ"
      ],
      [
        "åħ",
        "¬"
      ],
      [
        "åį",
        "İ"
      ],
      [
        "èİ",
        "«"
      ],
      [
        "å",
        "§"
      ],
      [
        "æ",
        "¨"
      ],
      [
        "ç",
        "Ī"
      ],
      [
        "æķ",
        "ħ"
      ],
      [
        "æ",
        "¼"
      ],
      [
        "æĦ",
        "ģ"
      ],
      [
        "æŃ",
        "Į"
      ],
      [
        "æĸ",
        "¹"
      ],
      [
        "çº",
        "¢"
      ],
      [
        "å¥",
        "½"
      ],
      [
        "åĲ",
        "ĳ"
      ],
      [
        "é",
        "ĵ"
      ],
      [
        "åĪ",
        "Ĩ"
      ],
      [
        "å°",
        "ı"
      ],
      [
        "ä»",
        "Ļ"
      ],
      [
        "æĸ",
        "ĩ"
      ],
      [
        "åĲ",
        "İ"
      ],
      [
        "å",
        "¢"
      ],
      [
        "å²",
        "ģ"
      ],
      [
        "éĿ",
        "ŀ"
      ],
      [
        "ç",
        "Ĺ"
      ],
      [
        "ç",
        "Ĥ"
      ],
      [
        "å®",
        "ī"
      ],
      [
        "è",
        "Ĺ"
      ],
      [
        "åĪ",
        "«"
      ],
      [
        "äº",
        "Ķ"
      ],
      [
        "èµ",
        "·"
      ],
      [
        "å¤",
        "ĸ"
      ],
      [
        "è",
        "¨Ģ"
      ],
      [
        "çľ",
        "Ł"
      ],
      [
        "ç",
        "²"
      ],
      [
        "ç",
        "ħ"
      ],
      [
        "ç«",
        "¹"
      ],
      [
        "åı",
        "ĳ"
      ],
      [
        "æ¥",
        "¼"
      ],
      [
        "åŃ",
        "¤"
      ],
      [
        "ç¥",
        "ŀ"
      ],
      [
        "ä¹",
        "ĭ"
      ],
      [
        "æ",
        "½"
      ],
      [
        "åĿ",
        "Ĳ"
      ],
      [
        "éĹ",
        "®"
      ],
      [
        "ç",
        "ı"
      ],
      [
        "ç¬",
        "ĳ"
      ],
      [
        "é¡",
        "»"
      ],
      [
        "åĮ",
        "Ĺ"
      ],
      [
        "åı",
        "°"
      ],
      [
        "æĿ",
        "¾"
      ],
      [
        "å¹",
        "½"
      ],
      [
        "éĺ",
        "´"
      ],
      [
        "åĪ",
        "Ŀ"
      ],
      [
        "è¾",
        "¹"
      ],
      [
        "çķ",
        "Ļ"
      ],
      [
        "éľ",
        "ľ"
      ],
      [
        "æº",
        "ª"
      ],
      [
        "è",
        "£"
      ],
      [
        "å²",
        "Ĥ"
      ],
      [
        "å",
        "ŀ"
      ],
      [
        "è",
        "¢"
      ],
      [
        "ç",
        "®"
      ],
      [
        "éĩ",
        "İ"
      ],
      [
        "è",
        "ĳ"
      ],
      [
        "å",
        "ķ"
      ],
      [
        "åı",
        "¶"
      ],
      [
        "åĲ",
        "¾"
      ],
      [
        "å",
        "Ħ"
      ],
      [
        "ä¸",
        "¤"
      ],
      [
        "æī",
        "Ģ"
      ],
      [
        "é¦",
        "Ģ"
      ],
      [
        "åį",
        "Ĭ"
      ],
      [
        "æ¹",
        "ĸ"
      ],
      [
        "å",
        "Ĥ"
      ],
      [
        "éļ",
        "ı"
      ],
      [
        "éĨ",
        "ī"
      ],
      [
        "ä¼",
        "ł"
      ],
      [
        "è",
        "ģ"
      ],
      [
        "åħ",
        "Ī"
      ],
      [
        "æĢ",
        "Ģ"
      ],
      [
        "çİ",
        "ĭ"
      ],
      [
        "åĽ",
        "Ľ"
      ],
      [
        "å½",
        "±"
      ],
      [
        "æĻ",
        "ļ"
      ],
      [
        "ä»",
        "¥"
      ],
      [
        "åĽ",
        "½"
      ],
      [
        "è",
        "ĵ"
      ],
      [
        "æ",
        "£"
      ],
      [
        "è",
        "ĸ"
      ],
      [
        "é",
        "Ł"
      ],
      [
        "çī",
        "©"
      ],
      [
        "æ",
        "ħ"
      ],
      [
        "é",
        "¼"
      ],
      [
        "ç",
        "¨"
      ],
      [
        "åħ",
        "±"
      ],
      [
        "å°",
        "ĳ"
      ],
      [
        "é¸",
        "Ł"
      ],
      [
        "ç»",
        "¿"
      ],
      [
        "å",
        "ĭ"
      ],
      [
        "æ²",
        "³"
      ],
      [
        "æµ",
        "®"
      ],
      [
        "è",
        "±"
      ],
      [
        "å",
        "Ķ"
      ],
      [
        "ä¹",
        "Ŀ"
      ],
      [
        "æŃ",
        "£"
      ],
      [
        "ç¢",
        "§"
      ],
      [
        "æŁ",
        "³"
      ],
      [
        "ä¹",
        "Ĳ"
      ],
      [
        "æĽ",
        "¾"
      ],
      [
        "å±",
        "ħ"
      ],
      [
        "è¯",
        "Ń"
      ],
      [
        "æ³",
        "¢"
      ],
      [
        "èĪ",
        "Ł"
      ],
      [
        "æŀ",
        "Ŀ"
      ],
      [
        "ç»",
        "ı"
      ],
      [
        "è",
        "ħ"
      ],
      [
        "åı",
        "Į"
      ],
      [
        "ç",
        "ł"
      ],
      [
        "å¾",
        "®"
      ],
      [
        "åł",
        "Ĥ"
      ],
      [
        "æĥ",
        "Ĭ"
      ],
      [
        "åĲ",
        "Ł"
      ],
      [
        "éľ",
        "²"
      ],
      [
        "åħ",
        "³"
      ],
      [
        "èĭ",
        "į"
      ],
      [
        "çľ",
        "¼"
      ],
      [
        "æ",
        "ĳ"
      ],
      [
        "éĢ",
        "¢"
      ],
      [
        "å",
        "¨"
      ],
      [
        "å¯",
        "¹"
      ],
      [
        "æĢ",
        "ľ"
      ],
      [
        "ç¿",
        "ł"
      ],
      [
        "ç",
        "Į"
      ],
      [
        "ä¹",
        "ħ"
      ],
      [
        "åĲ",
        "¹"
      ],
      [
        "å°",
        "ļ"
      ],
      [
        "ç¦",
        "»"
      ],
      [
        "æļ",
        "®"
      ],
      [
        "å¯",
        "»"
      ],
      [
        "ç»",
        "Ī"
      ],
      [
        "ç",
        "¯"
      ],
      [
        "æľ",
        "¨"
      ],
      [
        "åħ",
        "´"
      ],
      [
        "ä¸",
        "´"
      ],
      [
        "èĭ",
        "¥"
      ],
      [
        "åı",
        "ª"
      ],
      [
        "çħ",
        "§"
      ],
      [
        "èĬ",
        "³"
      ],
      [
        "æī",
        "į"
      ],
      [
        "åı",
        "Ī"
      ],
      [
        "ä¹",
        "¡"
      ],
      [
        "æ±",
        "ī"
      ],
      [
        "æ³",
        "ī"
      ],
      [
        "åį",
        "´"
      ],
      [
        "è¿",
        "ĳ"
      ],
      [
        "æ®",
        "ĭ"
      ],
      [
        "æĸ",
        "Ń"
      ],
      [
        "æī",
        "ĭ"
      ],
      [
        "é",
        "¬"
      ],
      [
        "å¿",
        "½"
      ],
      [
        "è½",
        "»"
      ],
      [
        "æ¢",
        "ħ"
      ],
      [
        "åħ",
        "¶"
      ],
      [
        "é",
        "±"
      ],
      [
        "å®",
        "ĺ"
      ],
      [
        "é±",
        "¼"
      ],
      [
        "æķ",
        "°"
      ],
      [
        "å³",
        "°"
      ],
      [
        "ç",
        "ĩ"
      ],
      [
        "èĲ",
        "§"
      ],
      [
        "è",
        "Ħ"
      ],
      [
        "åł",
        "ª"
      ],
      [
        "é¸",
        "£"
      ],
      [
        "èĭ",
        "¦"
      ],
      [
        "ç",
        "ĳ"
      ],
      [
        "è½",
        "¦"
      ],
      [
        "é",
        "Ń"
      ],
      [
        "ç»",
        "Ŀ"
      ],
      [
        "æĺ",
        "Ł"
      ],
      [
        "çĸ",
        "ı"
      ],
      [
        "åĲ",
        "¬"
      ],
      [
        "é",
        "ĸ"
      ],
      [
        "çĶ",
        "»"
      ],
      [
        "è¶",
        "³"
      ],
      [
        "å¤",
        "ª"
      ],
      [
        "è",
        "ı"
      ],
      [
        "äº",
        "Į"
      ],
      [
        "å",
        "¡"
      ],
      [
        "å£",
        "«"
      ],
      [
        "æĽ",
        "²"
      ],
      [
        "çª",
        "Ĺ"
      ],
      [
        "å¤",
        "ķ"
      ],
      [
        "åĸ",
        "ľ"
      ],
      [
        "åº",
        "Ń"
      ],
      [
        "å",
        "»"
      ],
      [
        "åĦ",
        "¿"
      ],
      [
        "éģ",
        "¥"
      ],
      [
        "çĻ",
        "»"
      ],
      [
        "å®",
        "«"
      ],
      [
        "åĩ",
        "ī"
      ],
      [
        "æľ",
        "Ł"
      ],
      [
        "è¿",
        "ŀ"
      ],
      [
        "åĬ",
        "¨"
      ],
      [
        "å¿",
        "Ĩ"
      ],
      [
        "å",
        "ĥ"
      ],
      [
        "ä¾",
        "Ŀ"
      ],
      [
        "ç´",
        "«"
      ],
      [
        "é¹",
        "¤"
      ],
      [
        "ä¸",
        "Ķ"
      ],
      [
        "åĽ",
        "Ń"
      ],
      [
        "è",
        "Ľ"
      ],
      [
        "æ",
        "į"
      ],
      [
        "çģ",
        "µ"
      ],
      [
        "å¸",
        "¸"
      ],
      [
        "è½",
        "¬"
      ],
      [
        "äº",
        "Ń"
      ],
      [
        "èĢ",
        "ħ"
      ],
      [
        "é¦",
        "ĸ"
      ],
      [
        "é",
        "²"
      ],
      [
        "å®",
        "¹"
      ],
      [
        "è½",
        "½"
      ],
      [
        "çĪ",
        "±"
      ],
      [
        "éĸ",
        "Ĵ"
      ],
      [
        "èĻ",
        "ļ"
      ],
      [
        "æĻ",
        "´"
      ],
      [
        "èĬ",
        "Ĥ"
      ],
      [
        "èĥ",
        "ľ"
      ],
      [
        "äº",
        "İ"
      ],
      [
        "ä½",
        "¿"
      ],
      [
        "é",
        "º"
      ],
      [
        "ç©",
        "·"
      ],
      [
        "èĩ",
        "³"
      ],
      [
        "ä¸",
        "¹"
      ],
      [
        "å",
        "´"
      ],
      [
        "å¾",
        "Ģ"
      ],
      [
        "æĺ",
        "Ķ"
      ],
      [
        "åŃ",
        "¦"
      ],
      [
        "è¯",
        "Ĩ"
      ],
      [
        "è",
        "Ĵ"
      ],
      [
        "å·",
        "ŀ"
      ],
      [
        "ç¾",
        "¤"
      ],
      [
        "å¿",
        "ĺ"
      ],
      [
        "çĶ",
        "°"
      ],
      [
        "æ²",
        "Ļ"
      ],
      [
        "åŀ",
        "Ĥ"
      ],
      [
        "éĢ",
        "ģ"
      ],
      [
        "æĤ",
        "²"
      ],
      [
        "éĹ",
        "²"
      ],
      [
        "èį",
        "Ĵ"
      ],
      [
        "ç",
        "ĵ"
      ],
      [
        "å¯",
        "Ħ"
      ],
      [
        "æ",
        "ı"
      ],
      [
        "çĹ",
        "ħ"
      ],
      [
        "æ±",
        "ł"
      ],
      [
        "éļ",
        "Ĳ"
      ],
      [
        "éģ",
        "Ĺ"
      ],
      [
        "å",
        "Ĺ"
      ],
      [
        "äº",
        "²"
      ],
      [
        "çĩ",
        "ķ"
      ],
      [
        "æ³",
        "ª"
      ],
      [
        "æ¨",
        "ª"
      ],
      [
        "æĻ",
        "ĵ"
      ],
      [
        "åĲ",
        "Ī"
      ],
      [
        "åĴ",
        "Į"
      ],
      [
        "åº",
        "¦"
      ],
      [
        "éĽ",
        "ģ"
      ],
      [
        "æķ",
        "£"
      ],
      [
        "æ",
        "Ĳ"
      ],
      [
        "è",
        "¸"
      ],
      [
        "ç",
        "¤"
      ],
      [
        "è",
        "ľ"
      ],
      [
        "è",
        "¹"
      ],
      [
        "åĢ",
        "ļ"
      ],
      [
        "è§",
        "ī"
      ],
      [
        "éĢ",
        "ļ"
      ],
      [
        "åĩ",
        "¤"
      ],
      [
        "æĥ",
        "Ł"
      ],
      [
        "æ¡",
        "ĥ"
      ],
      [
        "åħ",
        "ĥ"
      ],
      [
        "çģ",
        "«"
      ],
      [
        "éĿ",
        "Ļ"
      ],
      [
        "éļ",
        "Ķ"
      ],
      [
        "ä¼",
        "ĳ"
      ],
      [
        "åĽ",
        "ł"
      ],
      [
        "å®",
        "ļ"
      ],
      [
        "æĹ",
        "©"
      ],
      [
        "è§",
        "£"
      ],
      [
        "ä¿",
        "¡"
      ],
      [
        "å°",
        "Ķ"
      ],
      [
        "åĬ",
        "Ł"
      ],
      [
        "è",
        "¦"
      ],
      [
        "çģ",
        "¯"
      ],
      [
        "æĺ",
        "ĵ"
      ],
      [
        "è¯",
        "´"
      ],
      [
        "å¯",
        "Ĥ"
      ],
      [
        "å¥",
        "³"
      ],
      [
        "è®",
        "º"
      ],
      [
        "åħ",
        "Ń"
      ],
      [
        "è´",
        "¤"
      ],
      [
        "æŃ",
        "»"
      ],
      [
        "ä¼",
        "ļ"
      ],
      [
        "ä¹",
        "±"
      ],
      [
        "æĸ",
        "ľ"
      ],
      [
        "ä»",
        "¤"
      ],
      [
        "æ",
        "¦"
      ],
      [
        "é",
        "½"
      ],
      [
        "ç",
        "Ŀ"
      ],
      [
        "å¾",
        "ħ"
      ],
      [
        "æĿ",
        "¯"
      ],
      [
        "çº",
        "·"
      ],
      [
        "æĻ",
        "¯"
      ],
      [
        "å¤",
        "«"
      ],
      [
        "å¾",
        "Ħ"
      ],
      [
        "å¿",
        "§"
      ],
      [
        "ç«",
        "ĭ"
      ],
      [
        "è®",
        "¸"
      ],
      [
        "çĶ",
        "¨"
      ],
      [
        "åĮ",
        "ĸ"
      ],
      [
        "æ",
        "¿"
      ],
      [
        "éĻ",
        "µ"
      ],
      [
        "æģ",
        "¨"
      ],
      [
        "å±",
        "ĭ"
      ],
      [
        "éĥ",
        "İ"
      ],
      [
        "åħ",
        "°"
      ],
      [
        "è¿",
        "Ł"
      ],
      [
        "ä½",
        "Ĩ"
      ],
      [
        "éľ",
        "ŀ"
      ],
      [
        "æĸ",
        "Ĺ"
      ],
      [
        "å¥",
        "ĩ"
      ],
      [
        "äº",
        "¤"
      ],
      [
        "æĤ",
        "ł"
      ],
      [
        "æ",
        "§"
      ],
      [
        "è¿",
        "¹"
      ],
      [
        "èĳ",
        "Ĺ"
      ],
      [
        "ä¾",
        "¿"
      ],
      [
        "å¸",
        "¦"
      ],
      [
        "ç¬",
        "Ķ"
      ],
      [
        "éĿ",
        "¢"
      ],
      [
        "å·",
        "Ŀ"
      ],
      [
        "çĸ",
        "ĳ"
      ],
      [
        "æµ",
        "ª"
      ],
      [
        "åĬ",
        "Ľ"
      ],
      [
        "é¢",
        "ľ"
      ],
      [
        "è§",
        "Ĥ"
      ],
      [
        "éĥ",
        "½"
      ],
      [
        "ç»",
        "ĵ"
      ],
      [
        "ç«",
        "ł"
      ],
      [
        "åĨ",
        "·"
      ],
      [
        "ç¿",
        "ģ"
      ],
      [
        "æĿ",
        "ĳ"
      ],
      [
        "ä¸",
        "»"
      ],
      [
        "çı",
        "ł"
      ],
      [
        "ä¸",
        "Ŀ"
      ],
      [
        "å²",
        "©"
      ],
      [
        "äº",
        "ī"
      ],
      [
        "èĪ",
        "¹"
      ],
      [
        "ç»",
        "Ĩ"
      ],
      [
        "å®",
        "ģ"
      ],
      [
        "ä¸ĩ",
        "éĩĮ"
      ],
      [
        "å¾",
        "·"
      ],
      [
        "æ",
        "¾"
      ],
      [
        "åİ",
        "Ł"
      ],
      [
        "å¿",
        "µ"
      ],
      [
        "æ¥",
        "ļ"
      ],
      [
        "éĺ",
        "ģ"
      ],
      [
        "åį",
        "§"
      ],
      [
        "æ¡",
        "¥"
      ],
      [
        "åľ",
        "£"
      ],
      [
        "åĬ",
        "³"
      ],
      [
        "ä½",
        "³"
      ],
      [
        "å¸",
        "Ŀ"
      ],
      [
        "éĶ",
        "¦"
      ],
      [
        "æľ",
        "¬"
      ],
      [
        "æ¬",
        "¢"
      ],
      [
        "æĦ",
        "¿"
      ],
      [
        "è",
        "Ŀ"
      ],
      [
        "åĲ",
        "´"
      ],
      [
        "æĦ",
        "Ł"
      ],
      [
        "çļ",
        "ĩ"
      ],
      [
        "èµ",
        "ĭ"
      ],
      [
        "çĽ",
        "´"
      ],
      [
        "èĸ",
        "Ħ"
      ],
      [
        "ç",
        "±"
      ],
      [
        "æģ",
        "©"
      ],
      [
        "éŁ",
        "³"
      ],
      [
        "ç",
        "Ĩ"
      ],
      [
        "éĴ",
        "Ł"
      ],
      [
        "åĨ",
        "°"
      ],
      [
        "åĽ",
        "¾"
      ],
      [
        "èĻ",
        "½"
      ],
      [
        "å°",
        "º"
      ],
      [
        "è°",
        "·"
      ],
      [
        "ç§",
        "»"
      ],
      [
        "ç«",
        "¯"
      ],
      [
        "çĽ",
        "®"
      ],
      [
        "é£",
        "Ł"
      ],
      [
        "æķ",
        "Ļ"
      ],
      [
        "å",
        "ĺ"
      ],
      [
        "è¯",
        "¸"
      ],
      [
        "ä½ķ",
        "å¤Ħ"
      ],
      [
        "æ°",
        "ĳ"
      ],
      [
        "åĨ",
        "ł"
      ],
      [
        "ä¹",
        "ĺ"
      ],
      [
        "é£",
        "ĺ"
      ],
      [
        "ç¿",
        "»"
      ],
      [
        "ç½",
        "Ĺ"
      ],
      [
        "æ¼",
        "«"
      ],
      [
        "å¼",
        "Ĥ"
      ],
      [
        "çł",
        "´"
      ],
      [
        "å§",
        "ĭ"
      ],
      [
        "èĪ",
        "ŀ"
      ],
      [
        "èĮ",
        "«"
      ],
      [
        "æŃ",
        "¥"
      ],
      [
        "è",
        "Ķ"
      ],
      [
        "æģ",
        "¯"
      ],
      [
        "èī",
        "¯"
      ],
      [
        "è",
        "ķ"
      ],
      [
        "é¼",
        "ĵ"
      ],
      [
        "éª",
        "¨"
      ],
      [
        "åĥ",
        "§"
      ],
      [
        "å¸",
        "Ī"
      ],
      [
        "åŃ",
        "Ĺ"
      ],
      [
        "ç´",
        "ł"
      ],
      [
        "ä¼",
        "¤"
      ],
      [
        "é¢",
        "ĳ"
      ],
      [
        "é",
        "ŀ"
      ],
      [
        "åº",
        "ķ"
      ],
      [
        "çļ",
        "Ĩ"
      ],
      [
        "è¾",
        "ŀ"
      ],
      [
        "æ¶",
        "Ī"
      ],
      [
        "å®",
        "¿"
      ],
      [
        "åī",
        "ĳ"
      ],
      [
        "éŃ",
        "Ĥ"
      ],
      [
        "ä¹",
        "ĥ"
      ],
      [
        "èģ",
        "Ĭ"
      ],
      [
        "ä¸į",
        "çŁ¥"
      ],
      [
        "ä¿",
        "Ĺ"
      ],
      [
        "ç§",
        "į"
      ],
      [
        "æŀ",
        "ģ"
      ],
      [
        "èĭ",
        "±"
      ],
      [
        "æ±",
        "Ĥ"
      ],
      [
        "æĺ¥",
        "é£İ"
      ],
      [
        "èĹ",
        "ı"
      ],
      [
        "åħ",
        "«"
      ],
      [
        "æĥ",
        "ľ"
      ],
      [
        "å°",
        "Ĭ"
      ],
      [
        "æĬ",
        "¥"
      ],
      [
        "èĵ",
        "¬"
      ],
      [
        "å®",
        "ľ"
      ],
      [
        "æĶ",
        "¶"
      ],
      [
        "åķ",
        "¼"
      ],
      [
        "åı",
        "Ĭ"
      ],
      [
        "çĤ",
        "¹"
      ],
      [
        "ç»",
        "ķ"
      ],
      [
        "éĤ",
        "£"
      ],
      [
        "é¸",
        "¿"
      ],
      [
        "ç¼",
        "ĺ"
      ],
      [
        "é¥",
        "®"
      ],
      [
        "éĽ",
        "Ħ"
      ],
      [
        "åı",
        "¥"
      ],
      [
        "æķ",
        "¢"
      ],
      [
        "èĻ",
        "İ"
      ],
      [
        "ç",
        "£"
      ],
      [
        "åįĥ",
        "éĩĮ"
      ],
      [
        "æ´",
        "ŀ"
      ],
      [
        "æĥ",
        "³"
      ],
      [
        "é¸",
        "¡"
      ],
      [
        "æľ",
        "Ģ"
      ],
      [
        "æ",
        "ª"
      ],
      [
        "é¬",
        "ĵ"
      ],
      [
        "è°",
        "¢"
      ],
      [
        "ç",
        "ŀ"
      ],
      [
        "æł",
        "ĸ"
      ],
      [
        "åľ",
        "Ł"
      ],
      [
        "åı",
        "¹"
      ],
      [
        "èĩ",
        "£"
      ],
      [
        "å£",
        "ģ"
      ],
      [
        "éĩ",
        "ĩ"
      ],
      [
        "ä»",
        "ĸ"
      ],
      [
        "åı",
        "£"
      ],
      [
        "ç",
        "°"
      ],
      [
        "çĽ",
        "ĺ"
      ],
      [
        "çĲ",
        "´"
      ],
      [
        "æľ",
        "±"
      ],
      [
        "æĮ",
        "ģ"
      ],
      [
        "ç¾",
        "İ"
      ],
      [
        "éĢ",
        "Ĳ"
      ],
      [
        "æĿ",
        "¨"
      ],
      [
        "çŁ",
        "Ń"
      ],
      [
        "çī",
        "Ľ"
      ],
      [
        "æĬ",
        "±"
      ],
      [
        "å¿",
        "Ĺ"
      ],
      [
        "åĳ",
        "½"
      ],
      [
        "åį",
        "·"
      ],
      [
        "è´",
        "Ł"
      ],
      [
        "æĬ",
        "ĺ"
      ],
      [
        "åĳ",
        "¼"
      ],
      [
        "å¾",
        "Ĵ"
      ],
      [
        "åģ",
        "ı"
      ],
      [
        "æĦ",
        "§"
      ],
      [
        "å¤",
        "±"
      ],
      [
        "ç¾",
        "½"
      ],
      [
        "ç",
        "ĺ"
      ],
      [
        "çī",
        "ĩ"
      ],
      [
        "æ¶",
        "¯"
      ],
      [
        "æł",
        "¹"
      ],
      [
        "åĹ",
        "Ł"
      ],
      [
        "æ¡",
        "ĳ"
      ],
      [
        "çİ",
        "Ħ"
      ],
      [
        "æļ",
        "Ĺ"
      ],
      [
        "ç§",
        "¦"
      ],
      [
        "å",
        "«"
      ],
      [
        "é½",
        "Ĳ"
      ],
      [
        "çľ",
        "ł"
      ],
      [
        "æĤ",
        "¬"
      ],
      [
        "åĩ",
        "Ń"
      ],
      [
        "æĮ",
        "ĩ"
      ],
      [
        "åĨ",
        "Ľ"
      ],
      [
        "é¢",
        "ĺ"
      ],
      [
        "è¦",
        "ģ"
      ],
      [
        "åı",
        "ĸ"
      ],
      [
        "å²",
        "¸"
      ],
      [
        "åħ",
        "µ"
      ],
      [
        "åĢ",
        "¾"
      ],
      [
        "åĳ",
        "¨"
      ],
      [
        "ä¾",
        "¯"
      ],
      [
        "è´",
        "µ"
      ],
      [
        "åŃ",
        "ĺ"
      ],
      [
        "ä¹",
        "¾"
      ],
      [
        "åį",
        "³"
      ],
      [
        "æĶ",
        "¾"
      ],
      [
        "èĤ",
        "¯"
      ],
      [
        "çĲ",
        "Ĩ"
      ],
      [
        "æ²",
        "§"
      ],
      [
        "æĿ",
        "İ"
      ],
      [
        "å¸",
        "ĺ"
      ],
      [
        "å¸",
        "Ĥ"
      ],
      [
        "æİ",
        "¥"
      ],
      [
        "å²",
        "Ń"
      ],
      [
        "æ¢",
        "ģ"
      ],
      [
        "ç«",
        "Ł"
      ],
      [
        "åŃ",
        "Ļ"
      ],
      [
        "æĪ",
        "·"
      ],
      [
        "åĤ",
        "į"
      ],
      [
        "éĤ",
        "»"
      ],
      [
        "æĬ",
        "Ĭ"
      ],
      [
        "è®",
        "¡"
      ],
      [
        "äºº",
        "éĹ´"
      ],
      [
        "è¿",
        "·"
      ],
      [
        "æĳ",
        "ĩ"
      ],
      [
        "æĺ",
        "ł"
      ],
      [
        "çĶ",
        "ĺ"
      ],
      [
        "è¡",
        "°"
      ],
      [
        "è°",
        "Ī"
      ],
      [
        "å¹",
        "²"
      ],
      [
        "çĻ½",
        "äºĳ"
      ],
      [
        "é¡",
        "¾"
      ],
      [
        "çĭ",
        "Ĥ"
      ],
      [
        "ç²",
        "¾"
      ],
      [
        "éĵ",
        "¶"
      ],
      [
        "æŀ",
        "ķ"
      ],
      [
        "æĲ",
        "º"
      ],
      [
        "æľ",
        "º"
      ],
      [
        "ä¸į",
        "åı¯"
      ],
      [
        "æĢ",
        "¥"
      ],
      [
        "æ¸",
        "Ķ"
      ],
      [
        "æĺ",
        "ı"
      ],
      [
        "åĲ",
        "«"
      ],
      [
        "åħ",
        "¨"
      ],
      [
        "éª",
        "ĳ"
      ],
      [
        "å¿",
        "ħ"
      ],
      [
        "å®",
        "Ŀ"
      ],
      [
        "ä½",
        "İ"
      ],
      [
        "åĵ",
        "Ģ"
      ],
      [
        "æ¸",
        "Ĳ"
      ],
      [
        "åĨ",
        "µ"
      ],
      [
        "ä¹",
        "Į"
      ],
      [
        "ä»",
        "į"
      ],
      [
        "çĶ",
        "±"
      ],
      [
        "å°",
        "ģ"
      ],
      [
        "è",
        "ļ"
      ],
      [
        "è¯",
        "ķ"
      ],
      [
        "åĤ",
        "¬"
      ],
      [
        "åĨ",
        "¥"
      ],
      [
        "åı",
        "Ĥ"
      ],
      [
        "æģ",
        "Ĳ"
      ],
      [
        "èĥ",
        "¡"
      ],
      [
        "éĻ",
        "Ī"
      ],
      [
        "å¹",
        "¶"
      ],
      [
        "å®",
        "¤"
      ],
      [
        "ç",
        "³"
      ],
      [
        "åįģ",
        "å¹´"
      ],
      [
        "åı",
        "ĺ"
      ],
      [
        "ä½",
        "ı"
      ],
      [
        "è´",
        "«"
      ],
      [
        "èĭ",
        "Ķ"
      ],
      [
        "è½",
        "©"
      ],
      [
        "æĭ",
        "Ĥ"
      ],
      [
        "ä¸",
        "ĥ"
      ],
      [
        "åģ",
        "¶"
      ],
      [
        "æ¯",
        "ı"
      ],
      [
        "è¯",
        "»"
      ],
      [
        "ä¸",
        "ļ"
      ],
      [
        "è¿",
        "İ"
      ],
      [
        "å¾",
        "ģ"
      ],
      [
        "äº",
        "¬"
      ],
      [
        "éķ",
        "ľ"
      ],
      [
        "ä»",
        "»"
      ],
      [
        "è®",
        "°"
      ],
      [
        "å®",
        "Ī"
      ],
      [
        "å¹³",
        "çĶŁ"
      ],
      [
        "æŃ",
        "¦"
      ],
      [
        "åħ",
        "¹"
      ],
      [
        "å¯",
        "º"
      ],
      [
        "æ³",
        "½"
      ],
      [
        "èį",
        "£"
      ],
      [
        "è§",
        "Ĵ"
      ],
      [
        "èĮ",
        "ħ"
      ],
      [
        "ä¸",
        "¾"
      ],
      [
        "å¹",
        "¸"
      ],
      [
        "èį",
        "¯"
      ],
      [
        "æĸ",
        "¯"
      ],
      [
        "æĺİ",
        "æľĪ"
      ],
      [
        "æ²",
        "ī"
      ],
      [
        "æī",
        "¬"
      ],
      [
        "æ¯",
        "Ķ"
      ],
      [
        "æ®",
        "¿"
      ],
      [
        "ä¹",
        "Ł"
      ],
      [
        "èĢ",
        "Į"
      ],
      [
        "éĿĴ",
        "å±±"
      ],
      [
        "å£",
        "®"
      ],
      [
        "æ²",
        "Ī"
      ],
      [
        "å¡",
        "ŀ"
      ],
      [
        "æ½",
        "®"
      ],
      [
        "æ°",
        "¸"
      ],
      [
        "ç¦",
        "ħ"
      ],
      [
        "èı",
        "Ĭ"
      ],
      [
        "åº",
        "Ĭ"
      ],
      [
        "åİ",
        "Ĩ"
      ],
      [
        "ä¸",
        "ĺ"
      ],
      [
        "æī",
        "¶"
      ],
      [
        "æĢ",
        "»"
      ],
      [
        "åº",
        "Ĳ"
      ],
      [
        "æ³",
        "¥"
      ],
      [
        "ä¿",
        "±"
      ],
      [
        "çľ",
        "ī"
      ],
      [
        "æ³",
        "ķ"
      ],
      [
        "æ",
        "¤"
      ],
      [
        "æ¡",
        "Ĥ"
      ],
      [
        "æĬ",
        "ķ"
      ],
      [
        "åį",
        "±"
      ],
      [
        "éĽ",
        "¾"
      ],
      [
        "æ",
        "ĵ"
      ],
      [
        "å¼",
        "¦"
      ],
      [
        "å¸",
        "Ĩ"
      ],
      [
        "ç½",
        "¢"
      ],
      [
        "éĴ",
        "ĵ"
      ],
      [
        "ç§",
        "°"
      ],
      [
        "æĻ",
        "¨"
      ],
      [
        "è",
        "Ĩ"
      ],
      [
        "å¦",
        "Ļ"
      ],
      [
        "èĪ",
        "į"
      ],
      [
        "èİ",
        "²"
      ],
      [
        "é",
        "³"
      ],
      [
        "èį",
        "·"
      ],
      [
        "åĵ",
        "ī"
      ],
      [
        "æ®",
        "Ĭ"
      ],
      [
        "ç",
        "Ĵ"
      ],
      [
        "ä¼",
        "Ĺ"
      ],
      [
        "ä»",
        "°"
      ],
      [
        "æĿ",
        "ĸ"
      ],
      [
        "çº",
        "µ"
      ],
      [
        "å®",
        "µ"
      ],
      [
        "èµ",
        "°"
      ],
      [
        "åĳ",
        "³"
      ],
      [
        "èĤ",
        "ł"
      ],
      [
        "æ·",
        "¡"
      ],
      [
        "æ¹",
        "ĺ"
      ],
      [
        "å½",
        "¢"
      ],
      [
        "ç",
        "¨Ģ"
      ],
      [
        "è",
        "Ł"
      ],
      [
        "åĲ",
        "Ħ"
      ],
      [
        "ä»",
        "£"
      ],
      [
        "æķħ",
        "äºº"
      ],
      [
        "åĢ",
        "Ł"
      ],
      [
        "é£İ",
        "éĽ¨"
      ],
      [
        "æĪ",
        "ĺ"
      ],
      [
        "å",
        "µ"
      ],
      [
        "å£",
        "ĳ"
      ],
      [
        "æ´",
        "²"
      ],
      [
        "èµ",
        "¤"
      ],
      [
        "å¼",
        "ł"
      ],
      [
        "æĭ",
        "Ľ"
      ],
      [
        "é£İ",
        "åĲ¹"
      ],
      [
        "éĺ",
        "Ļ"
      ],
      [
        "åĨ",
        "Ļ"
      ],
      [
        "æĥ",
        "Ń"
      ],
      [
        "çŃ",
        "ĸ"
      ],
      [
        "æ¸",
        "¡"
      ],
      [
        "éĴ",
        "±"
      ],
      [
        "ä¼",
        "´"
      ],
      [
        "è¶",
        "Ĭ"
      ],
      [
        "æ´",
        "Ĺ"
      ],
      [
        "ç¤",
        "¼"
      ],
      [
        "åĭ",
        "¤"
      ],
      [
        "æĭ",
        "Ł"
      ],
      [
        "å",
        "©"
      ],
      [
        "åı",
        "ĭ"
      ],
      [
        "åĢ",
        "Ĵ"
      ],
      [
        "ä»Ĭ",
        "æĹ¥"
      ],
      [
        "æŀ",
        "¯"
      ],
      [
        "åĩ",
        "Ħ"
      ],
      [
        "çĽ",
        "Ľ"
      ],
      [
        "åĨ",
        "į"
      ],
      [
        "éĽ",
        "·"
      ],
      [
        "çĽ",
        "Ī"
      ],
      [
        "ç¬",
        "¬"
      ],
      [
        "åı",
        "²"
      ],
      [
        "å¢",
        "¨"
      ],
      [
        "æ±",
        "Ŀ"
      ],
      [
        "ä¿",
        "®"
      ],
      [
        "æĹ",
        "¢"
      ],
      [
        "æĺ",
        "¼"
      ],
      [
        "ç",
        "¹"
      ],
      [
        "çĳ",
        "¶"
      ],
      [
        "è¿",
        "½"
      ],
      [
        "ç§",
        "¯"
      ],
      [
        "äº",
        "Ĩ"
      ],
      [
        "æĿ",
        "¡"
      ],
      [
        "å¼",
        "ķ"
      ],
      [
        "èį",
        "¡"
      ],
      [
        "çĪ",
        "¶"
      ],
      [
        "éģ",
        "į"
      ],
      [
        "ä½",
        "Ľ"
      ],
      [
        "è",
        "ª"
      ],
      [
        "è¯",
        "į"
      ],
      [
        "æ",
        "ĩ"
      ],
      [
        "æļ",
        "ĸ"
      ],
      [
        "æĺ",
        "¨"
      ],
      [
        "æ",
        "Ĵ"
      ],
      [
        "å½Ĵ",
        "æĿ¥"
      ],
      [
        "è",
        "ŀ"
      ],
      [
        "ä¹",
        "ī"
      ],
      [
        "ç§ĭ",
        "é£İ"
      ],
      [
        "æİ",
        "©"
      ],
      [
        "æµ",
        "©"
      ],
      [
        "ç«",
        "¥"
      ],
      [
        "é©",
        "±"
      ],
      [
        "æī",
        "¿"
      ],
      [
        "ç",
        "Ģ"
      ],
      [
        "å¼",
        "º"
      ],
      [
        "äº",
        "ķ"
      ],
      [
        "å¯",
        "¿"
      ],
      [
        "æļ",
        "Ĥ"
      ],
      [
        "èµ",
        "ı"
      ],
      [
        "æ¹",
        "¿"
      ],
      [
        "èĢ",
        "³"
      ],
      [
        "éĺ",
        "ĳ"
      ],
      [
        "çĻ¾",
        "å¹´"
      ],
      [
        "æĢ",
        "§"
      ],
      [
        "éľ",
        "Ħ"
      ],
      [
        "ä¸į",
        "è§ģ"
      ],
      [
        "çº",
        "¦"
      ],
      [
        "ä¸",
        "Ľ"
      ],
      [
        "éĢ",
        "Ķ"
      ],
      [
        "éĻ",
        "ħ"
      ],
      [
        "éĥ",
        "ģ"
      ],
      [
        "æĭ",
        "¥"
      ],
      [
        "æī",
        "«"
      ],
      [
        "åĦ",
        "Ĵ"
      ],
      [
        "æĭ",
        "ľ"
      ],
      [
        "åĨ",
        "ħ"
      ],
      [
        "è±",
        "¡"
      ],
      [
        "æ¸",
        "º"
      ],
      [
        "æ¯",
        "į"
      ],
      [
        "æ¶",
        "§"
      ],
      [
        "èİ",
        "º"
      ],
      [
        "è¢",
        "«"
      ],
      [
        "æª",
        "Ĳ"
      ],
      [
        "åĪ",
        "Ĺ"
      ],
      [
        "æĮ",
        "Ĥ"
      ],
      [
        "å¸",
        "Ń"
      ],
      [
        "éģ",
        "¿"
      ],
      [
        "æĸ",
        "ĭ"
      ],
      [
        "å£",
        "¶"
      ],
      [
        "å¤",
        "ı"
      ],
      [
        "æ·",
        "®"
      ],
      [
        "åĲ",
        "ı"
      ],
      [
        "å®",
        "ĩ"
      ],
      [
        "å°",
        "±"
      ],
      [
        "æº",
        "Ĳ"
      ],
      [
        "è°",
        "ĥ"
      ],
      [
        "æ¢ħ",
        "èĬ±"
      ],
      [
        "å¿",
        "į"
      ],
      [
        "æµ",
        "ĳ"
      ],
      [
        "å·",
        "¥"
      ],
      [
        "å½",
        "¼"
      ],
      [
        "èĢ",
        "ķ"
      ],
      [
        "éĨ",
        "Ĵ"
      ],
      [
        "åĬ",
        "¿"
      ],
      [
        "ä¸",
        "Ī"
      ],
      [
        "å®",
        "ŀ"
      ],
      [
        "ç®",
        "¡"
      ],
      [
        "å¢",
        "Ļ"
      ],
      [
        "çĽ",
        "ĸ"
      ],
      [
        "é¸",
        "¥"
      ],
      [
        "åĵ",
        "į"
      ],
      [
        "éĺ",
        "¶"
      ],
      [
        "éĽ",
        "¶"
      ],
      [
        "æĪ",
        "ĸ"
      ],
      [
        "æ·",
        "»"
      ],
      [
        "é¸",
        "¾"
      ],
      [
        "ä½",
        "©"
      ],
      [
        "åº",
        "ľ"
      ],
      [
        "åİ",
        "Į"
      ],
      [
        "ä¾",
        "µ"
      ],
      [
        "ç§",
        "Ģ"
      ],
      [
        "éĻ",
        "¤"
      ],
      [
        "å¤",
        "·"
      ],
      [
        "é©",
        "¾"
      ],
      [
        "ä¸",
        "¥"
      ],
      [
        "çİ",
        "¯"
      ],
      [
        "åĽŀ",
        "é¦ĸ"
      ],
      [
        "å¤©",
        "åľ°"
      ],
      [
        "çĥ",
        "Ľ"
      ],
      [
        "æĢ",
        "ħ"
      ],
      [
        "è½",
        "®"
      ],
      [
        "æĬ",
        "«"
      ],
      [
        "ç¾",
        "¡"
      ],
      [
        "é©",
        "°"
      ],
      [
        "å±",
        "Ĥ"
      ],
      [
        "æĿ",
        "ľ"
      ],
      [
        "é¥",
        "¥"
      ],
      [
        "æ¯",
        "Ľ"
      ],
      [
        "ä½",
        "Ļ"
      ],
      [
        "æ¨",
        "½"
      ],
      [
        "åħ",
        "»"
      ],
      [
        "éģ",
        "£"
      ],
      [
        "éģ",
        "Ĥ"
      ],
      [
        "å¼",
        "Ħ"
      ],
      [
        "è¥",
        "Ł"
      ],
      [
        "å¯",
        "¥"
      ],
      [
        "ç¦",
        "ģ"
      ],
      [
        "æµ",
        "ħ"
      ],
      [
        "éĥ",
        "Ń"
      ],
      [
        "æĶ",
        "¿"
      ],
      [
        "ç¤",
        "¾"
      ],
      [
        "å¾",
        "¡"
      ],
      [
        "ä¾",
        "Ľ"
      ],
      [
        "åĺ",
        "ī"
      ],
      [
        "åĩ",
        "Ģ"
      ],
      [
        "å¹",
        "¿"
      ],
      [
        "åĩ",
        "Į"
      ],
      [
        "ç¾",
        "Ĭ"
      ],
      [
        "çĲ",
        "¼"
      ],
      [
        "æ¶",
        "Ľ"
      ],
      [
        "è®",
        "¿"
      ],
      [
        "æĹł",
        "äºº"
      ],
      [
        "æ´",
        "Ĵ"
      ],
      [
        "èĮ",
        "¶"
      ],
      [
        "åĽ",
        "º"
      ],
      [
        "å¥",
        "Ī"
      ],
      [
        "éĵ",
        "ģ"
      ],
      [
        "é¼",
        "İ"
      ],
      [
        "ç¹",
        "ģ"
      ],
      [
        "æĢ",
        "ª"
      ],
      [
        "å±",
        "ŀ"
      ],
      [
        "ä¸ľ",
        "é£İ"
      ],
      [
        "åĿ",
        "¤"
      ],
      [
        "å¯",
        "Į"
      ],
      [
        "æŃ",
        "¢"
      ],
      [
        "ç¯",
        "ĩ"
      ],
      [
        "å¡",
        "ĺ"
      ],
      [
        "å¦",
        "¨"
      ],
      [
        "ç»",
        "£"
      ],
      [
        "åĴ",
        "ı"
      ],
      [
        "ç¿",
        "©"
      ],
      [
        "ç©",
        "¿"
      ],
      [
        "çĮ",
        "¿"
      ],
      [
        "å²",
        "³"
      ],
      [
        "ç¯",
        "±"
      ],
      [
        "è¢",
        "ĸ"
      ],
      [
        "æİ",
        "¨"
      ],
      [
        "åħ",
        "¼"
      ],
      [
        "åı",
        "Ĺ"
      ],
      [
        "èĲ",
        "¥"
      ],
      [
        "å¢",
        "ĥ"
      ],
      [
        "éģ",
        "ĩ"
      ],
      [
        "æĪ",
        "¿"
      ],
      [
        "ä¸",
        "°"
      ],
      [
        "çĨ",
        "Ł"
      ],
      [
        "åĩ",
        "Ŀ"
      ],
      [
        "èį",
        "Ĩ"
      ],
      [
        "è§",
        "ŀ"
      ],
      [
        "æĹ",
        "Ĺ"
      ],
      [
        "éĹ",
        "Ń"
      ],
      [
        "éĽ",
        "Ĩ"
      ],
      [
        "æ±Ł",
        "åįĹ"
      ],
      [
        "å¿",
        "ł"
      ],
      [
        "æĢ",
        "¨"
      ],
      [
        "å´",
        "ĸ"
      ],
      [
        "æĹ",
        "Į"
      ],
      [
        "æĮ",
        "¥"
      ],
      [
        "åģ",
        "ľ"
      ],
      [
        "æ",
        "Ĩ"
      ],
      [
        "éĺ",
        "¿"
      ],
      [
        "è°",
        "ĵ"
      ],
      [
        "è±",
        "ª"
      ],
      [
        "é¬",
        "¼"
      ],
      [
        "éĻ",
        "¶"
      ],
      [
        "å¯",
        "¸"
      ],
      [
        "å±",
        "ı"
      ],
      [
        "å®",
        "¾"
      ],
      [
        "è¯",
        "Ŀ"
      ],
      [
        "å¼",
        "Ł"
      ],
      [
        "å·",
        "®"
      ],
      [
        "å¦Ĥ",
        "ä½ķ"
      ],
      [
        "æ´",
        "¥"
      ],
      [
        "çĥ",
        "¦"
      ],
      [
        "éĽ",
        "ħ"
      ],
      [
        "æ²",
        "¡"
      ],
      [
        "æ²",
        "¾"
      ],
      [
        "èĭ",
        "ı"
      ],
      [
        "çĹ",
        "ķ"
      ],
      [
        "å½ĵ",
        "å¹´"
      ],
      [
        "æµ",
        "¦"
      ],
      [
        "ä»",
        "ĺ"
      ],
      [
        "é",
        "ĢĤ"
      ],
      [
        "æĶ",
        "Ģ"
      ],
      [
        "æī",
        "ĺ"
      ],
      [
        "æħ",
        "°"
      ],
      [
        "æ£",
        "¹"
      ],
      [
        "åĢ",
        "¦"
      ],
      [
        "ç´",
        "¯"
      ],
      [
        "çĻ½",
        "åıĳ"
      ],
      [
        "æĹ",
        "ĭ"
      ],
      [
        "æ´",
        "Ľ"
      ],
      [
        "é£İ",
        "æµģ"
      ],
      [
        "è°",
        "ĭ"
      ],
      [
        "æĩ",
        "Ĵ"
      ],
      [
        "æĹ",
        "ħ"
      ],
      [
        "åĸ",
        "§"
      ],
      [
        "äº",
        "Ī"
      ],
      [
        "æľ",
        "į"
      ],
      [
        "åı¯",
        "æĢľ"
      ],
      [
        "çĿ",
        "¡"
      ],
      [
        "åį",
        "ĩ"
      ],
      [
        "æ¸",
        "ł"
      ],
      [
        "å¦",
        "Ĩ"
      ],
      [
        "æĤł",
        "æĤł"
      ],
      [
        "çĽ¸",
        "éĢ¢"
      ],
      [
        "åľ",
        "Ĩ"
      ],
      [
        "åł",
        "ķ"
      ],
      [
        "èĦ",
        "±"
      ],
      [
        "çŁ",
        "£"
      ],
      [
        "æļ",
        "ĳ"
      ],
      [
        "èĲ",
        "Ŀ"
      ],
      [
        "å®",
        "Ĺ"
      ],
      [
        "åľ",
        "º"
      ],
      [
        "è¥¿",
        "é£İ"
      ],
      [
        "é¦",
        "Ĩ"
      ],
      [
        "éĥ",
        "Ĭ"
      ],
      [
        "å¸",
        "ĥ"
      ],
      [
        "è§",
        "Ĩ"
      ],
      [
        "åº",
        "Ļ"
      ],
      [
        "è¾",
        "ī"
      ],
      [
        "å¼",
        "¹"
      ],
      [
        "åĨ",
        "¬"
      ],
      [
        "å¯",
        "Ĩ"
      ],
      [
        "ä¹¾",
        "åĿ¤"
      ],
      [
        "äº",
        "¡"
      ],
      [
        "è",
        "²"
      ],
      [
        "èĩ",
        "´"
      ],
      [
        "çĤ",
        "ī"
      ],
      [
        "åĶ",
        "Ĳ"
      ],
      [
        "ç³",
        "»"
      ],
      [
        "å±±",
        "ä¸Ń"
      ],
      [
        "èĬ",
        "Ļ"
      ],
      [
        "æ³",
        "Ľ"
      ],
      [
        "è¡",
        "Ģ"
      ],
      [
        "ä¹",
        "°"
      ],
      [
        "çĮ",
        "®"
      ],
      [
        "ç¨",
        "ĭ"
      ],
      [
        "èĴ",
        "²"
      ],
      [
        "¤",
        "Ĳ"
      ],
      [
        "æ¼",
        "ł"
      ],
      [
        "éĢ",
        "ł"
      ],
      [
        "å½",
        "©"
      ],
      [
        "åĭ",
        "¿"
      ],
      [
        "è¾",
        "¾"
      ],
      [
        "åĽ",
        "Ĭ"
      ],
      [
        "é¥",
        "±"
      ],
      [
        "é¹",
        "¿"
      ],
      [
        "è§",
        "ħ"
      ],
      [
        "å¥",
        "Ķ"
      ],
      [
        "å°",
        "Ŀ"
      ],
      [
        "çĺ",
        "¦"
      ],
      [
        "ç¦",
        "½"
      ],
      [
        "åį",
        "Ī"
      ],
      [
        "å",
        "ª"
      ],
      [
        "çĶ",
        "²"
      ],
      [
        "åķ",
        "Ĩ"
      ],
      [
        "æµģ",
        "æ°´"
      ],
      [
        "æŁ",
        "ı"
      ],
      [
        "è¸",
        "ª"
      ],
      [
        "ç´",
        "¢"
      ],
      [
        "å¤ķ",
        "éĺ³"
      ],
      [
        "èİ",
        "±"
      ],
      [
        "çª",
        "¥"
      ],
      [
        "åĽ",
        "¢"
      ],
      [
        "è¸",
        "ı"
      ],
      [
        "å·",
        "¾"
      ],
      [
        "æµ",
        "ĵ"
      ],
      [
        "é¥",
        "Ń"
      ],
      [
        "ç¥",
        "ĸ"
      ],
      [
        "å®",
        "½"
      ],
      [
        "å¤©",
        "æ¶¯"
      ],
      [
        "å¦",
        "ĩ"
      ],
      [
        "å¨",
        "ģ"
      ],
      [
        "è¿",
        "Ŀ"
      ],
      [
        "æĿ",
        "Ģ"
      ],
      [
        "åĶ",
        "±"
      ],
      [
        "å",
        "Ļ"
      ],
      [
        "èģ",
        "ļ"
      ],
      [
        "çı",
        "į"
      ],
      [
        "çĤ",
        "İ"
      ],
      [
        "æ",
        "©"
      ],
      [
        "è£",
        "³"
      ],
      [
        "éħ",
        "¬"
      ],
      [
        "ä»",
        "ģ"
      ],
      [
        "åĨ",
        "ľ"
      ],
      [
        "èĥ",
        "Į"
      ],
      [
        "éĥ",
        "¡"
      ],
      [
        "æĬ",
        "¤"
      ],
      [
        "å§",
        "¿"
      ],
      [
        "è¡",
        "¨"
      ],
      [
        "åĶ",
        "¯"
      ],
      [
        "å¥",
        "ī"
      ],
      [
        "ä¿",
        "¯"
      ],
      [
        "æĹ¥",
        "æľĪ"
      ],
      [
        "ç¾",
        "ŀ"
      ],
      [
        "æµ",
        "İ"
      ],
      [
        "è¯",
        "ļ"
      ],
      [
        "èĿ",
        "¶"
      ],
      [
        "åĽ",
        "´"
      ],
      [
        "ä½ķ",
        "äºº"
      ],
      [
        "å·",
        "¢"
      ],
      [
        "è¦",
        "Ĩ"
      ],
      [
        "æ¬",
        "£"
      ],
      [
        "çķ",
        "Ķ"
      ],
      [
        "åħĪ",
        "çĶŁ"
      ],
      [
        "è¾",
        "°"
      ],
      [
        "èĭ",
        "ĳ"
      ],
      [
        "æ±Ł",
        "æ¹ĸ"
      ],
      [
        "éĶ",
        "Ģ"
      ],
      [
        "æ¨",
        "µ"
      ],
      [
        "ç²",
        "ī"
      ],
      [
        "æ¡",
        "Ĳ"
      ],
      [
        "æ¼",
        "ı"
      ],
      [
        "åĶ",
        "¤"
      ],
      [
        "åĲ",
        "Ĳ"
      ],
      [
        "æĶ",
        "¯"
      ],
      [
        "æĸĩ",
        "ç«ł"
      ],
      [
        "èħ",
        "°"
      ],
      [
        "èĵ",
        "ī"
      ],
      [
        "éĺ",
        "Ķ"
      ],
      [
        "è¿",
        "¢"
      ],
      [
        "å¥",
        "ı"
      ],
      [
        "é»",
        "ĳ"
      ],
      [
        "åį",
        "¿"
      ],
      [
        "åħ",
        "Ħ"
      ],
      [
        "æģ",
        "¶"
      ],
      [
        "æĽ",
        "¹"
      ],
      [
        "æŀ",
        "ľ"
      ],
      [
        "ç¬",
        "Ľ"
      ],
      [
        "åĮ",
        "º"
      ],
      [
        "å®",
        "ħ"
      ],
      [
        "è¶",
        "ĭ"
      ],
      [
        "è¡",
        "Ķ"
      ],
      [
        "éĻ",
        "©"
      ],
      [
        "åĪ",
        "Ģ"
      ],
      [
        "çŀ",
        "»"
      ],
      [
        "æī",
        "ī"
      ],
      [
        "åķ",
        "¸"
      ],
      [
        "ä½ķ",
        "æĹ¶"
      ],
      [
        "èħ",
        "¾"
      ],
      [
        "èĬĻ",
        "èĵī"
      ],
      [
        "ä¼",
        "ı"
      ],
      [
        "é¢",
        "ĩ"
      ],
      [
        "èį",
        "Ĳ"
      ],
      [
        "ç»",
        "®"
      ],
      [
        "ä¼",
        "¯"
      ],
      [
        "åĪ",
        "©"
      ],
      [
        "æ¸",
        "©"
      ],
      [
        "åİ",
        "ĭ"
      ],
      [
        "éŀ",
        "Ń"
      ],
      [
        "è",
        "ĺ"
      ],
      [
        "èī",
        "³"
      ],
      [
        "è¶",
        "£"
      ],
      [
        "èĪ",
        "Ĩ"
      ],
      [
        "å°",
        "Ħ"
      ],
      [
        "ç¿",
        "¼"
      ],
      [
        "èľ",
        "Ģ"
      ],
      [
        "åĸ",
        "Ħ"
      ],
      [
        "çŃ",
        "µ"
      ],
      [
        "ä½ķ",
        "å¦Ĥ"
      ],
      [
        "çľ",
        "ģ"
      ],
      [
        "å«",
        "Į"
      ],
      [
        "æ½",
        "ľ"
      ],
      [
        "èĲ½",
        "æĹ¥"
      ],
      [
        "æ¡ĥ",
        "èĬ±"
      ],
      [
        "å¯",
        "ŀ"
      ],
      [
        "æĪ",
        "ı"
      ],
      [
        "å»",
        "¶"
      ],
      [
        "æ¸",
        "Ĭ"
      ],
      [
        "èĥ",
        "¸"
      ],
      [
        "çĽ",
        "Ĭ"
      ],
      [
        "å±",
        "¥"
      ],
      [
        "æģ",
        "ĭ"
      ],
      [
        "åįĥ",
        "è½½"
      ],
      [
        "åŁ",
        "ĥ"
      ],
      [
        "æĮ",
        "¯"
      ],
      [
        "åı",
        "ł"
      ],
      [
        "å±",
        "¡"
      ],
      [
        "éĻ",
        "į"
      ],
      [
        "ä¾",
        "į"
      ],
      [
        "æ£",
        "®"
      ],
      [
        "å¤©",
        "ä¸ĭ"
      ],
      [
        "çĻ½",
        "æĹ¥"
      ],
      [
        "å®",
        "´"
      ],
      [
        "äºº",
        "çĶŁ"
      ],
      [
        "éĶ",
        "ģ"
      ],
      [
        "çı",
        "Ń"
      ],
      [
        "è¿",
        "Ľ"
      ],
      [
        "å®",
        "£"
      ],
      [
        "çº",
        "¸"
      ],
      [
        "èĤ",
        "ĥ"
      ],
      [
        "æĿ",
        "Ĥ"
      ],
      [
        "èµ",
        "ĸ"
      ],
      [
        "èĲ§",
        "èĲ§"
      ],
      [
        "ä»",
        "ª"
      ],
      [
        "åı",
        "·"
      ],
      [
        "åĨ",
        "²"
      ],
      [
        "è¿",
        "Ķ"
      ],
      [
        "åĢ",
        "Ļ"
      ],
      [
        "åĿ",
        "Ľ"
      ],
      [
        "èĴ",
        "Ļ"
      ],
      [
        "æŁ",
        "´"
      ],
      [
        "ç",
        "µ"
      ],
      [
        "åį",
        "ľ"
      ],
      [
        "åİ",
        "¿"
      ],
      [
        "æ¯",
        "«"
      ],
      [
        "èĻ",
        "«"
      ],
      [
        "æī",
        "ģ"
      ],
      [
        "éĻ",
        "¢"
      ],
      [
        "ç»",
        "´"
      ],
      [
        "çĶ",
        "ļ"
      ],
      [
        "åį",
        "ł"
      ],
      [
        "åł",
        "¤"
      ],
      [
        "ç°",
        "ª"
      ],
      [
        "çŃ",
        "ī"
      ],
      [
        "æ¾",
        "Ħ"
      ],
      [
        "å¼",
        "ĥ"
      ],
      [
        "é¸",
        "¦"
      ],
      [
        "ä¸į",
        "å¾Ĺ"
      ],
      [
        "ä¹",
        "ŀ"
      ],
      [
        "èµ",
        "ł"
      ],
      [
        "çķ",
        "Į"
      ],
      [
        "è¾",
        "Ī"
      ],
      [
        "çĦ",
        "ī"
      ],
      [
        "æ¦",
        "»"
      ],
      [
        "çĽ¸",
        "æĢĿ"
      ],
      [
        "éĵ",
        "ľ"
      ],
      [
        "ä¸",
        "½"
      ],
      [
        "çĳ",
        "Ł"
      ],
      [
        "è¯",
        "¯"
      ],
      [
        "æĪ",
        "Ī"
      ],
      [
        "éķ¿",
        "å®ī"
      ],
      [
        "æ¸ħ",
        "é£İ"
      ],
      [
        "åįĥ",
        "åı¤"
      ],
      [
        "æ³",
        "£"
      ],
      [
        "åī",
        "ª"
      ],
      [
        "èµ",
        "Ĳ"
      ],
      [
        "ç¬",
        "¼"
      ],
      [
        "æ±Ł",
        "ä¸Ĭ"
      ],
      [
        "åº",
        "Ł"
      ],
      [
        "ç¥",
        "ł"
      ],
      [
        "è£",
        "ĺ"
      ],
      [
        "é»Ħ",
        "éĩĳ"
      ],
      [
        "ç¥",
        "ĩ"
      ],
      [
        "è¿",
        "Ĳ"
      ],
      [
        "æĳ",
        "©"
      ],
      [
        "å²ģ",
        "æľĪ"
      ],
      [
        "çķ",
        "ı"
      ],
      [
        "å·",
        "¦"
      ],
      [
        "æ½",
        "Ń"
      ],
      [
        "æŁ",
        "ĵ"
      ],
      [
        "æ®",
        "·"
      ],
      [
        "å¹",
        "ķ"
      ],
      [
        "ä¹",
        "į"
      ],
      [
        "å¸",
        "Ĳ"
      ],
      [
        "è¡",
        "¡"
      ],
      [
        "æ¸",
        "ļ"
      ],
      [
        "å®",
        "¦"
      ],
      [
        "å¯Ĥ",
        "å¯ŀ"
      ],
      [
        "æĿ",
        "³"
      ],
      [
        "åįĥ",
        "å¹´"
      ],
      [
        "èĬ",
        "Ŀ"
      ],
      [
        "åº",
        "§"
      ],
      [
        "æĻ",
        "ĸ"
      ],
      [
        "çī",
        "µ"
      ],
      [
        "ç¾",
        "ģ"
      ],
      [
        "ç¼",
        "ĸ"
      ],
      [
        "é²",
        "ľ"
      ],
      [
        "éĢ",
        "Ģ"
      ],
      [
        "çº·",
        "çº·"
      ],
      [
        "å¤©",
        "ä¸Ĭ"
      ],
      [
        "ç£",
        "¨"
      ],
      [
        "éĻ",
        "Ĳ"
      ],
      [
        "è¯",
        "ı"
      ],
      [
        "ç®",
        "Ģ"
      ],
      [
        "çĥ",
        "Ĥ"
      ],
      [
        "ç¦",
        "ı"
      ],
      [
        "æĺ",
        "Ń"
      ],
      [
        "åŃ",
        "Ŀ"
      ],
      [
        "åĪ",
        "ĺ"
      ],
      [
        "åĵ",
        "Ń"
      ],
      [
        "ä¸į",
        "èĥ½"
      ],
      [
        "ç®",
        "«"
      ],
      [
        "éĢ",
        "¸"
      ],
      [
        "èĿ",
        "ī"
      ],
      [
        "çĹ",
        "´"
      ],
      [
        "çģ",
        "Ń"
      ],
      [
        "ç«",
        "ŀ"
      ],
      [
        "æł",
        "ı"
      ],
      [
        "é³",
        "ŀ"
      ],
      [
        "æ¬",
        "¡"
      ],
      [
        "æ½",
        "ĩ"
      ],
      [
        "ä½ķ",
        "äºĭ"
      ],
      [
        "ç¿",
        "°"
      ],
      [
        "å®ī",
        "å¾Ĺ"
      ],
      [
        "æ¢",
        "§"
      ],
      [
        "èĤ",
        "¥"
      ],
      [
        "éħ",
        "Į"
      ],
      [
        "æŁ",
        "±"
      ],
      [
        "ç¢",
        "ĳ"
      ],
      [
        "åı",
        "¸"
      ],
      [
        "çĻ½",
        "å¤´"
      ],
      [
        "éĽ",
        "Ģ"
      ],
      [
        "æĶ",
        "¹"
      ],
      [
        "å¾",
        "Ĭ"
      ],
      [
        "ç½",
        "®"
      ],
      [
        "æ¾",
        "¹"
      ],
      [
        "å¦Ĥ",
        "æŃ¤"
      ],
      [
        "è°ģ",
        "èĥ½"
      ],
      [
        "åŃ",
        "°"
      ],
      [
        "æ»",
        "´"
      ],
      [
        "çģ",
        "°"
      ],
      [
        "å±",
        "Ī"
      ],
      [
        "ä¸",
        "ª"
      ],
      [
        "éĻ",
        "Ĩ"
      ],
      [
        "æ²",
        "»"
      ],
      [
        "ä¾",
        "§"
      ],
      [
        "ä¸į",
        "é¡»"
      ],
      [
        "è¡",
        "¥"
      ],
      [
        "å·",
        "§"
      ],
      [
        "è¾",
        "Ľ"
      ],
      [
        "èĪ",
        "Ĵ"
      ],
      [
        "æīģ",
        "èĪŁ"
      ],
      [
        "å¿",
        "Ļ"
      ],
      [
        "å¹´",
        "å¹´"
      ],
      [
        "å¢",
        "ŀ"
      ],
      [
        "åģ",
        "¥"
      ],
      [
        "æĪ",
        "İ"
      ],
      [
        "å°",
        "¾"
      ],
      [
        "éª",
        "ļ"
      ],
      [
        "æħ",
        "¨"
      ],
      [
        "çº",
        "¤"
      ],
      [
        "å½ĵ",
        "æĹ¶"
      ],
      [
        "éĽ",
        "ķ"
      ],
      [
        "èĤ",
        "ī"
      ],
      [
        "é",
        "¤Ĳ"
      ],
      [
        "æľĪ",
        "æĺİ"
      ],
      [
        "æį",
        "¢"
      ],
      [
        "å°",
        "¤"
      ],
      [
        "å±",
        "ķ"
      ],
      [
        "æ±Ł",
        "å±±"
      ],
      [
        "åĬ",
        "«"
      ],
      [
        "èª",
        "ĩ"
      ],
      [
        "æľ",
        "Ķ"
      ],
      [
        "å¾",
        "Ĳ"
      ],
      [
        "æµ®",
        "äºĳ"
      ],
      [
        "çĸ",
        "¾"
      ],
      [
        "çŃ",
        "ĳ"
      ],
      [
        "ä¼",
        "Ĭ"
      ],
      [
        "é©",
        "»"
      ],
      [
        "é¢",
        "ł"
      ],
      [
        "åĪ",
        "ĩ"
      ],
      [
        "å§",
        "ĵ"
      ],
      [
        "å",
        "¶"
      ],
      [
        "é¡",
        "¶"
      ],
      [
        "åĩ",
        "»"
      ],
      [
        "è£",
        "ģ"
      ],
      [
        "æł",
        "½"
      ],
      [
        "éĴ",
        "©"
      ],
      [
        "å·",
        "±"
      ],
      [
        "èģ",
        "Ķ"
      ],
      [
        "èī",
        "°"
      ],
      [
        "å³",
        "¨"
      ],
      [
        "é²",
        "ģ"
      ],
      [
        "å´",
        "ĩ"
      ],
      [
        "çķ",
        "¥"
      ],
      [
        "è¿",
        "ģ"
      ],
      [
        "èĻ",
        "¹"
      ],
      [
        "èĦ",
        "ļ"
      ],
      [
        "é¹",
        "Ń"
      ],
      [
        "æ³",
        "Ĭ"
      ],
      [
        "ç«",
        "¿"
      ],
      [
        "ä¸į",
        "å¦Ĥ"
      ],
      [
        "è¿",
        "¥"
      ],
      [
        "åĮ",
        "Ĩ"
      ],
      [
        "ç¿",
        "Ķ"
      ],
      [
        "æĸ",
        "ĳ"
      ],
      [
        "çĬ",
        "¬"
      ],
      [
        "å½Ĵ",
        "åİ»"
      ],
      [
        "æī",
        "ĩ"
      ],
      [
        "èħ",
        "¹"
      ],
      [
        "æ°",
        "ı"
      ],
      [
        "è¾",
        "Ł"
      ],
      [
        "å·",
        "·"
      ],
      [
        "èĻ",
        "ŀ"
      ],
      [
        "éŁ",
        "µ"
      ],
      [
        "é¡",
        "·"
      ],
      [
        "é¢",
        "Ĩ"
      ],
      [
        "ç¬",
        "¦"
      ],
      [
        "ç»",
        "µ"
      ],
      [
        "æ¶",
        "¦"
      ],
      [
        "éħ",
        "£"
      ],
      [
        "èĹ",
        "¤"
      ],
      [
        "ä¸Ģ",
        "ç¬ĳ"
      ],
      [
        "å°ĳ",
        "å¹´"
      ],
      [
        "é½",
        "¿"
      ],
      [
        "èĽ",
        "ĩ"
      ],
      [
        "æĸ",
        "½"
      ],
      [
        "æŃ¤",
        "æĹ¥"
      ],
      [
        "ä½",
        "ĵ"
      ],
      [
        "èĽ",
        "®"
      ],
      [
        "å§",
        "ĳ"
      ],
      [
        "çĥ",
        "§"
      ],
      [
        "æĢ",
        "Ĵ"
      ],
      [
        "è",
        "ł"
      ],
      [
        "åħ",
        "®"
      ],
      [
        "å¾",
        "ĺ"
      ],
      [
        "éº",
        "¦"
      ],
      [
        "éĻ",
        "Į"
      ],
      [
        "æľ",
        "ĭ"
      ],
      [
        "èĬ³",
        "èįī"
      ],
      [
        "æĢ",
        "ģ"
      ],
      [
        "åī",
        "©"
      ],
      [
        "æĤ",
        "Ł"
      ],
      [
        "è¢",
        "į"
      ],
      [
        "å¾ĺ",
        "å¾Ĭ"
      ],
      [
        "åĪ",
        "¶"
      ],
      [
        "åĨ",
        "»"
      ],
      [
        "æĿ¨",
        "æŁ³"
      ],
      [
        "çĳ",
        "ŀ"
      ],
      [
        "ç½",
        "ĳ"
      ],
      [
        "ä¾",
        "£"
      ],
      [
        "åħ",
        "¸"
      ],
      [
        "é©",
        "¿"
      ],
      [
        "è¢",
        "ħ"
      ],
      [
        "æİ",
        "¢"
      ],
      [
        "çī",
        "Ļ"
      ],
      [
        "åħ",
        "·"
      ],
      [
        "å§",
        "Ķ"
      ],
      [
        "æĬ",
        "ļ"
      ],
      [
        "åħ",
        "į"
      ],
      [
        "ç¬",
        "Ļ"
      ],
      [
        "ä¸į",
        "æĺ¯"
      ],
      [
        "æħ",
        "Ī"
      ],
      [
        "å²",
        "Ľ"
      ],
      [
        "ä½ķ",
        "æĹ¥"
      ],
      [
        "éº",
        "»"
      ],
      [
        "é£İ",
        "å°ĺ"
      ],
      [
        "æ¿",
        "¯"
      ],
      [
        "ç»",
        "Ń"
      ],
      [
        "åº",
        "Ĩ"
      ],
      [
        "èĸ",
        "°"
      ],
      [
        "è",
        "¤"
      ],
      [
        "åĬ",
        "Ŀ"
      ],
      [
        "ä»",
        "²"
      ],
      [
        "æĿ",
        "Ł"
      ],
      [
        "èĬ",
        "¦"
      ],
      [
        "å½",
        "»"
      ],
      [
        "éº",
        "Ł"
      ],
      [
        "ä¸Ģ",
        "çīĩ"
      ],
      [
        "èĮ«",
        "èĮ«"
      ],
      [
        "äº",
        "©"
      ],
      [
        "è°ģ",
        "çŁ¥"
      ],
      [
        "ä¸ī",
        "å¹´"
      ],
      [
        "æĿ",
        "ı"
      ],
      [
        "è¯",
        "·"
      ],
      [
        "è´",
        "¹"
      ],
      [
        "å°Ĩ",
        "åĨĽ"
      ],
      [
        "æĹ",
        "¦"
      ],
      [
        "åİ",
        "ļ"
      ],
      [
        "ç»",
        "§"
      ],
      [
        "ä¸»",
        "äºº"
      ],
      [
        "ä¸",
        "ģ"
      ],
      [
        "åĿ",
        "ļ"
      ],
      [
        "å»",
        "º"
      ],
      [
        "æĥ",
        "ł"
      ],
      [
        "æľī",
        "é¦Ģ"
      ],
      [
        "åĬŁ",
        "åĲį"
      ],
      [
        "æĺ",
        "Į"
      ],
      [
        "åº",
        "Ħ"
      ],
      [
        "æ¶",
        "ķ"
      ],
      [
        "åĪ",
        "»"
      ],
      [
        "æİ",
        "Ĵ"
      ],
      [
        "çĴ",
        "§"
      ],
      [
        "å¼",
        "±"
      ],
      [
        "çĵ",
        "ľ"
      ],
      [
        "åŃ",
        "Ķ"
      ],
      [
        "å¿",
        "«"
      ],
      [
        "éľ",
        "ı"
      ],
      [
        "ç¨",
        "į"
      ],
      [
        "æı",
        "Ĳ"
      ],
      [
        "ç",
        "¶"
      ],
      [
        "æ£",
        "ł"
      ],
      [
        "åĭ",
        "ĭ"
      ],
      [
        "éľ",
        "Ń"
      ],
      [
        "å®",
        "Ľ"
      ],
      [
        "æĹ",
        "ģ"
      ],
      [
        "åĬ",
        "ł"
      ],
      [
        "å¯",
        "Ĳ"
      ],
      [
        "æĭ",
        "Ļ"
      ],
      [
        "æĳ",
        "§"
      ],
      [
        "æĺ¥",
        "èī²"
      ],
      [
        "æħ",
        "ķ"
      ],
      [
        "å¼",
        "ĵ"
      ],
      [
        "èĬ",
        "ľ"
      ],
      [
        "ç±",
        "»"
[...]
